#ifndef CUSTOM_CNN_GRAY_MODEL_QUANTIZED_H
#define CUSTOM_CNN_GRAY_MODEL_QUANTIZED_H

const unsigned char custom_cnn_gray_model_quantized[] = {
  0x1c, 0x00, 0x00, 0x00, 0x54, 0x46, 0x4c, 0x33, 0x14, 0x00, 0x20, 0x00,
  0x1c, 0x00, 0x18, 0x00, 0x14, 0x00, 0x10, 0x00, 0x0c, 0x00, 0x00, 0x00,
  0x08, 0x00, 0x04, 0x00, 0x14, 0x00, 0x00, 0x00, 0x1c, 0x00, 0x00, 0x00,
  0x8c, 0x00, 0x00, 0x00, 0x0c, 0x01, 0x00, 0x00, 0x1c, 0x14, 0x00, 0x00,
  0x2c, 0x14, 0x00, 0x00, 0x00, 0x2b, 0x00, 0x00, 0x03, 0x00, 0x00, 0x00,
  0x01, 0x00, 0x00, 0x00, 0x04, 0x00, 0x00, 0x00, 0x76, 0xeb, 0xff, 0xff,
  0x0c, 0x00, 0x00, 0x00, 0x1c, 0x00, 0x00, 0x00, 0x3c, 0x00, 0x00, 0x00,
  0x0f, 0x00, 0x00, 0x00, 0x73, 0x65, 0x72, 0x76, 0x69, 0x6e, 0x67, 0x5f,
  0x64, 0x65, 0x66, 0x61, 0x75, 0x6c, 0x74, 0x00, 0x01, 0x00, 0x00, 0x00,
  0x04, 0x00, 0x00, 0x00, 0x68, 0xff, 0xff, 0xff, 0x17, 0x00, 0x00, 0x00,
  0x04, 0x00, 0x00, 0x00, 0x08, 0x00, 0x00, 0x00, 0x6f, 0x75, 0x74, 0x70,
  0x75, 0x74, 0x5f, 0x30, 0x00, 0x00, 0x00, 0x00, 0x01, 0x00, 0x00, 0x00,
  0x04, 0x00, 0x00, 0x00, 0x82, 0xeb, 0xff, 0xff, 0x04, 0x00, 0x00, 0x00,
  0x0c, 0x00, 0x00, 0x00, 0x6b, 0x65, 0x72, 0x61, 0x73, 0x5f, 0x74, 0x65,
  0x6e, 0x73, 0x6f, 0x72, 0x00, 0x00, 0x00, 0x00, 0x03, 0x00, 0x00, 0x00,
  0x5c, 0x00, 0x00, 0x00, 0x2c, 0x00, 0x00, 0x00, 0x04, 0x00, 0x00, 0x00,
  0xb8, 0xff, 0xff, 0xff, 0x1b, 0x00, 0x00, 0x00, 0x04, 0x00, 0x00, 0x00,
  0x13, 0x00, 0x00, 0x00, 0x43, 0x4f, 0x4e, 0x56, 0x45, 0x52, 0x53, 0x49,
  0x4f, 0x4e, 0x5f, 0x4d, 0x45, 0x54, 0x41, 0x44, 0x41, 0x54, 0x41, 0x00,
  0xdc, 0xff, 0xff, 0xff, 0x1a, 0x00, 0x00, 0x00, 0x04, 0x00, 0x00, 0x00,
  0x13, 0x00, 0x00, 0x00, 0x6d, 0x69, 0x6e, 0x5f, 0x72, 0x75, 0x6e, 0x74,
  0x69, 0x6d, 0x65, 0x5f, 0x76, 0x65, 0x72, 0x73, 0x69, 0x6f, 0x6e, 0x00,
  0x08, 0x00, 0x0c, 0x00, 0x08, 0x00, 0x04, 0x00, 0x08, 0x00, 0x00, 0x00,
  0x19, 0x00, 0x00, 0x00, 0x04, 0x00, 0x00, 0x00, 0x13, 0x00, 0x00, 0x00,
  0x6d, 0x69, 0x6e, 0x5f, 0x72, 0x75, 0x6e, 0x74, 0x69, 0x6d, 0x65, 0x5f,
  0x76, 0x65, 0x72, 0x73, 0x69, 0x6f, 0x6e, 0x00, 0x1c, 0x00, 0x00, 0x00,
  0x0c, 0x13, 0x00, 0x00, 0x04, 0x13, 0x00, 0x00, 0xec, 0x12, 0x00, 0x00,
  0xd4, 0x12, 0x00, 0x00, 0x84, 0x12, 0x00, 0x00, 0xf4, 0x11, 0x00, 0x00,
  0xe4, 0x0f, 0x00, 0x00, 0x94, 0x0f, 0x00, 0x00, 0x84, 0x06, 0x00, 0x00,
  0x34, 0x06, 0x00, 0x00, 0xa4, 0x01, 0x00, 0x00, 0x74, 0x01, 0x00, 0x00,
  0x1c, 0x01, 0x00, 0x00, 0x14, 0x01, 0x00, 0x00, 0x0c, 0x01, 0x00, 0x00,
  0x04, 0x01, 0x00, 0x00, 0xfc, 0x00, 0x00, 0x00, 0xf4, 0x00, 0x00, 0x00,
  0xec, 0x00, 0x00, 0x00, 0xe4, 0x00, 0x00, 0x00, 0xdc, 0x00, 0x00, 0x00,
  0xd4, 0x00, 0x00, 0x00, 0xcc, 0x00, 0x00, 0x00, 0xc4, 0x00, 0x00, 0x00,
  0xbc, 0x00, 0x00, 0x00, 0x9c, 0x00, 0x00, 0x00, 0x7c, 0x00, 0x00, 0x00,
  0x04, 0x00, 0x00, 0x00, 0x96, 0xec, 0xff, 0xff, 0x04, 0x00, 0x00, 0x00,
  0x68, 0x00, 0x00, 0x00, 0x0c, 0x00, 0x00, 0x00, 0x08, 0x00, 0x0e, 0x00,
  0x08, 0x00, 0x04, 0x00, 0x08, 0x00, 0x00, 0x00, 0x14, 0x00, 0x00, 0x00,
  0x30, 0x00, 0x00, 0x00, 0x00, 0x00, 0x0a, 0x00, 0x0c, 0x00, 0x08, 0x00,
  0x07, 0x00, 0x06, 0x00, 0x0a, 0x00, 0x00, 0x00, 0x00, 0x00, 0x01, 0x01,
  0x04, 0x00, 0x00, 0x00, 0x01, 0x00, 0x00, 0x00, 0xeb, 0x03, 0x00, 0x00,
  0x0c, 0x00, 0x18, 0x00, 0x14, 0x00, 0x10, 0x00, 0x0c, 0x00, 0x04, 0x00,
  0x0c, 0x00, 0x00, 0x00, 0x60, 0x45, 0x05, 0x55, 0x75, 0x92, 0x4f, 0xff,
  0x02, 0x00, 0x00, 0x00, 0x02, 0x00, 0x00, 0x00, 0x04, 0x00, 0x00, 0x00,
  0x06, 0x00, 0x00, 0x00, 0x32, 0x2e, 0x31, 0x38, 0x2e, 0x30, 0x00, 0x00,
  0x0a, 0xed, 0xff, 0xff, 0x04, 0x00, 0x00, 0x00, 0x10, 0x00, 0x00, 0x00,
  0x00, 0x00, 0x00, 0x00, 0x00, 0x00, 0x00, 0x00, 0x00, 0x00, 0x00, 0x00,
  0x00, 0x00, 0x00, 0x00, 0x26, 0xed, 0xff, 0xff, 0x04, 0x00, 0x00, 0x00,
  0x10, 0x00, 0x00, 0x00, 0x31, 0x2e, 0x31, 0x34, 0x2e, 0x30, 0x00, 0x00,
  0x00, 0x00, 0x00, 0x00, 0x00, 0x00, 0x00, 0x00, 0x60, 0xd7, 0xff, 0xff,
  0x64, 0xd7, 0xff, 0xff, 0x68, 0xd7, 0xff, 0xff, 0x6c, 0xd7, 0xff, 0xff,
  0x70, 0xd7, 0xff, 0xff, 0x74, 0xd7, 0xff, 0xff, 0x78, 0xd7, 0xff, 0xff,
  0x7c, 0xd7, 0xff, 0xff, 0x80, 0xd7, 0xff, 0xff, 0x84, 0xd7, 0xff, 0xff,
  0x88, 0xd7, 0xff, 0xff, 0x8c, 0xd7, 0xff, 0xff, 0x72, 0xed, 0xff, 0xff,
  0x04, 0x00, 0x00, 0x00, 0x48, 0x00, 0x00, 0x00, 0xe5, 0x59, 0x7b, 0xb6,
  0xb5, 0x98, 0x22, 0x81, 0x24, 0x83, 0x12, 0x5d, 0x7f, 0x12, 0x07, 0x74,
  0x5d, 0xa8, 0x96, 0x6e, 0x7a, 0x60, 0x81, 0x5e, 0xdc, 0x20, 0xed, 0x21,
  0xbd, 0x2d, 0xc4, 0xe8, 0x4e, 0x7f, 0x31, 0x72, 0x8e, 0x81, 0x9b, 0xbc,
  0x6a, 0x38, 0x62, 0x6d, 0xbb, 0x75, 0x78, 0xe6, 0x81, 0xb8, 0xfa, 0xd3,
  0x84, 0x1f, 0x39, 0x90, 0x66, 0x12, 0x18, 0x81, 0x03, 0x60, 0x0e, 0x09,
  0x78, 0x18, 0xd7, 0x7f, 0x6b, 0xd9, 0x4b, 0x4b, 0xc6, 0xed, 0xff, 0xff,
  0x04, 0x00, 0x00, 0x00, 0x20, 0x00, 0x00, 0x00, 0xe4, 0xff, 0xff, 0xff,
  0xbc, 0xe5, 0xff, 0xff, 0x83, 0xec, 0xff, 0xff, 0x69, 0xe9, 0xff, 0xff,
  0x56, 0x06, 0x00, 0x00, 0xed, 0x0d, 0x00, 0x00, 0x06, 0xe9, 0xff, 0xff,
  0x88, 0xf9, 0xff, 0xff, 0xf2, 0xed, 0xff, 0xff, 0x04, 0x00, 0x00, 0x00,
  0x80, 0x04, 0x00, 0x00, 0x58, 0x13, 0xc9, 0x2d, 0xa4, 0x7f, 0x46, 0x4e,
  0x76, 0xe1, 0x5b, 0xe8, 0xeb, 0x1f, 0xfe, 0xf2, 0x46, 0xc9, 0x22, 0xbc,
  0x4a, 0x3b, 0xe4, 0x42, 0x29, 0xf8, 0x26, 0xfb, 0x27, 0x42, 0xc0, 0x00,
  0x17, 0x19, 0x00, 0xa6, 0x1a, 0x1a, 0xaa, 0xf9, 0x1d, 0x49, 0x18, 0xf7,
  0x33, 0xed, 0x0a, 0x2a, 0x31, 0x22, 0xcc, 0xc5, 0x04, 0xff, 0xd5, 0x15,
  0x48, 0x91, 0x0a, 0xb1, 0x01, 0x0e, 0xfb, 0x09, 0x79, 0xa3, 0x2c, 0xee,
  0x0f, 0x31, 0x3b, 0xa6, 0x10, 0xd0, 0xde, 0x00, 0x7f, 0xd8, 0x84, 0x28,
  0xc2, 0xcc, 0x8a, 0xeb, 0x00, 0x17, 0x2c, 0xbb, 0xf0, 0xb5, 0xa9, 0x25,
  0xbb, 0xd1, 0xc0, 0xc6, 0x41, 0x02, 0x5a, 0xbe, 0xf8, 0xde, 0xcf, 0x30,
  0xc9, 0xd9, 0x9d, 0xd5, 0x42, 0x1c, 0xb7, 0x1a, 0x95, 0xf0, 0xa4, 0xf2,
  0x11, 0xfb, 0xef, 0xfa, 0x17, 0x98, 0x3b, 0xc9, 0x1f, 0x53, 0x3e, 0x34,
  0xd6, 0x38, 0x11, 0xa1, 0x71, 0x49, 0xc2, 0x1c, 0x24, 0xda, 0xcc, 0xdf,
  0xfc, 0x40, 0x9c, 0xad, 0x7f, 0x30, 0x17, 0xca, 0xba, 0x5d, 0x2f, 0xec,
  0x4f, 0x02, 0x3b, 0x07, 0xbc, 0x5b, 0x2f, 0x2a, 0x17, 0xc3, 0x1a, 0x2c,
  0x15, 0x50, 0xc8, 0x08, 0x61, 0xd0, 0x17, 0xc1, 0x3f, 0x33, 0xd1, 0xc1,
  0x1a, 0xf0, 0xe2, 0x25, 0xfb, 0x02, 0x20, 0xeb, 0x30, 0x13, 0x33, 0xf4,
  0x0d, 0x19, 0x14, 0xd8, 0x00, 0x02, 0xe9, 0xe0, 0x70, 0xef, 0xf5, 0xcb,
  0x00, 0x2e, 0xd5, 0x3e, 0x38, 0xfa, 0xf0, 0xf9, 0x09, 0x0f, 0xf8, 0x1d,
  0x49, 0xd3, 0x28, 0x0c, 0x56, 0x29, 0x39, 0xfa, 0x55, 0xd5, 0xe9, 0xc3,
  0xe6, 0xc3, 0xd8, 0xea, 0x10, 0x6a, 0x29, 0xb0, 0xf3, 0xda, 0x1c, 0x35,
  0x23, 0xfe, 0xcf, 0xef, 0x22, 0xe2, 0x0d, 0xe9, 0x42, 0x72, 0x4e, 0xd6,
  0x04, 0x25, 0x12, 0xbe, 0xea, 0x1b, 0xd6, 0xce, 0x02, 0xb8, 0xca, 0x11,
  0xd7, 0xfc, 0x39, 0x06, 0x61, 0x07, 0xc3, 0xbb, 0xca, 0x7f, 0x31, 0x17,
  0x4e, 0xc1, 0xfa, 0x10, 0x05, 0x09, 0xed, 0xff, 0x18, 0xf2, 0xfe, 0xb0,
  0x2e, 0x14, 0x41, 0x2c, 0x0a, 0x01, 0x04, 0xcb, 0x0b, 0x2f, 0xfb, 0xc6,
  0x2c, 0x2c, 0x45, 0xff, 0xf4, 0x54, 0x12, 0xd8, 0x02, 0x43, 0xcc, 0x0e,
  0x32, 0x16, 0xcc, 0x4e, 0x7f, 0xd3, 0x09, 0x03, 0x2e, 0x75, 0x22, 0x27,
  0x1e, 0x40, 0x16, 0xc6, 0x4d, 0x6c, 0xdb, 0xd7, 0x74, 0xb6, 0x2d, 0xda,
  0xd7, 0xfd, 0xb7, 0x21, 0x2c, 0xb7, 0x1c, 0xe3, 0x15, 0x6b, 0x19, 0xf4,
  0x6f, 0x06, 0xd5, 0x32, 0x2e, 0x4c, 0x11, 0x3f, 0x23, 0xd7, 0xd0, 0x2a,
  0x0e, 0x3a, 0xf5, 0xb7, 0x4d, 0xef, 0xc6, 0xe5, 0x19, 0xf5, 0x24, 0x24,
  0x54, 0xb5, 0xe2, 0xd4, 0x05, 0x2f, 0xc7, 0x22, 0xf8, 0xae, 0xf8, 0x12,
  0x07, 0x71, 0x2d, 0x0e, 0xe2, 0xea, 0xf9, 0xc6, 0xd8, 0x6c, 0xb1, 0xe6,
  0x27, 0xe8, 0x11, 0xc8, 0xe7, 0x28, 0xb1, 0xb0, 0x3e, 0xcf, 0xdc, 0xd4,
  0x1e, 0xfc, 0xfa, 0x32, 0x0d, 0xef, 0xb0, 0x4b, 0x68, 0x30, 0x1b, 0x36,
  0xad, 0xe1, 0x1d, 0x5a, 0x7f, 0xd4, 0x22, 0x04, 0xe9, 0x34, 0xba, 0xcb,
  0x40, 0xd4, 0x06, 0x17, 0xdc, 0xdc, 0xd5, 0x2b, 0x0c, 0x68, 0x0a, 0x11,
  0xdf, 0xd2, 0xc2, 0x55, 0x08, 0x48, 0x21, 0xf5, 0x43, 0xca, 0x27, 0x2f,
  0x28, 0xf9, 0x48, 0x59, 0x39, 0x3a, 0x32, 0xe4, 0x13, 0xd7, 0x02, 0xea,
  0x7f, 0x2d, 0xf7, 0x02, 0x3a, 0x24, 0xfd, 0x00, 0xfd, 0xf6, 0x47, 0xe1,
  0xdb, 0xfb, 0xa6, 0x25, 0x62, 0x42, 0x21, 0xc1, 0xbe, 0x65, 0xfd, 0xff,
  0xf2, 0xf3, 0xeb, 0xc5, 0x3e, 0x74, 0xaa, 0xe3, 0xeb, 0xe6, 0x9b, 0xa6,
  0x3f, 0x19, 0xd8, 0xba, 0x3a, 0x1d, 0x2c, 0x14, 0xc4, 0x55, 0xe6, 0xd0,
  0x22, 0x19, 0x03, 0xf0, 0xb9, 0x31, 0x0c, 0x12, 0x51, 0xec, 0x3c, 0xe2,
  0xec, 0x5a, 0xd4, 0x04, 0x4b, 0x01, 0xfc, 0xe8, 0x4b, 0xf9, 0xd3, 0xe2,
  0x30, 0x30, 0x22, 0x38, 0xf7, 0x20, 0x30, 0xfa, 0x01, 0x23, 0x1a, 0x00,
  0x00, 0x37, 0x04, 0xce, 0x60, 0x04, 0xd8, 0xee, 0x7f, 0xfa, 0x08, 0x06,
  0xf5, 0xce, 0xf8, 0x14, 0x26, 0x26, 0x35, 0x16, 0x5a, 0x30, 0x24, 0xd0,
  0x1c, 0xf3, 0x31, 0x01, 0xbd, 0xc4, 0x26, 0x89, 0x2a, 0x36, 0xc5, 0x2b,
  0x15, 0xc9, 0xe7, 0x9c, 0x1f, 0x85, 0xd7, 0xb8, 0x11, 0xaf, 0xaf, 0xe6,
  0x85, 0xc8, 0x39, 0xee, 0x9a, 0x4a, 0xc7, 0x88, 0x4c, 0x38, 0x35, 0xc5,
  0xd2, 0x0d, 0x37, 0x14, 0xc5, 0xca, 0xb4, 0x05, 0x61, 0xb0, 0xb8, 0x9a,
  0x17, 0x7f, 0xc8, 0xce, 0x20, 0x9e, 0xd8, 0xdf, 0xa9, 0xc3, 0xdb, 0x53,
  0x6d, 0xe2, 0xc6, 0x18, 0x8f, 0x03, 0xcc, 0x20, 0x0a, 0x5a, 0xad, 0xa8,
  0xa0, 0xbe, 0x25, 0x26, 0x63, 0xd5, 0x1a, 0xf0, 0x27, 0x05, 0x0a, 0xdd,
  0x0f, 0xdd, 0x26, 0x05, 0x4f, 0xee, 0xf8, 0x29, 0x24, 0x0d, 0xde, 0xbf,
  0x34, 0x13, 0xdc, 0xcc, 0xc4, 0xe8, 0xea, 0x36, 0x7f, 0xd1, 0xd5, 0xf9,
  0x38, 0x32, 0xcc, 0xf4, 0x51, 0xdd, 0x23, 0x2f, 0x6e, 0x27, 0xc6, 0x40,
  0x1d, 0x20, 0xc7, 0xe1, 0x23, 0x1d, 0xd3, 0x09, 0x20, 0x35, 0x0c, 0xe9,
  0xe0, 0xe6, 0xe6, 0xf6, 0xe0, 0x37, 0x06, 0x18, 0x19, 0xd4, 0x14, 0x06,
  0x1f, 0xde, 0x0e, 0x04, 0x66, 0x34, 0xe4, 0x35, 0x14, 0x1b, 0xdc, 0xdd,
  0xf5, 0x4f, 0x2d, 0xd9, 0x19, 0x12, 0xf0, 0xfa, 0xe6, 0x0a, 0xf3, 0x22,
  0x00, 0xe2, 0xf7, 0x3e, 0x5a, 0xf4, 0x23, 0xb2, 0x28, 0x74, 0x02, 0xc1,
  0x40, 0xeb, 0xf8, 0xc0, 0xb6, 0xf7, 0x07, 0x31, 0x3c, 0xd1, 0xfa, 0x1e,
  0xbe, 0x28, 0xc8, 0xdf, 0x3b, 0xb1, 0xa9, 0xee, 0x7f, 0xff, 0xf2, 0xcd,
  0x5e, 0xcf, 0xf9, 0xee, 0x3e, 0x48, 0xe3, 0x36, 0x15, 0xeb, 0x30, 0xd9,
  0x2c, 0x62, 0x1d, 0x31, 0x66, 0x25, 0x0c, 0xcf, 0x4c, 0xfb, 0x2d, 0x07,
  0x13, 0x2d, 0x03, 0x1a, 0x43, 0x0a, 0xe9, 0x14, 0x6e, 0xc0, 0xd7, 0xca,
  0x28, 0x31, 0xca, 0xd5, 0x0b, 0xfe, 0xf3, 0xf3, 0x65, 0x0c, 0xc4, 0xc5,
  0x1e, 0xf4, 0x2b, 0xdf, 0x7f, 0x42, 0x4a, 0xc0, 0x33, 0x05, 0x20, 0x36,
  0x31, 0x02, 0x0c, 0xca, 0xba, 0x42, 0x20, 0x29, 0x74, 0xe9, 0x0b, 0x25,
  0xec, 0xd3, 0xe3, 0x3a, 0x59, 0xbe, 0xf6, 0xe5, 0xea, 0x17, 0x0f, 0xdc,
  0x76, 0x18, 0x3e, 0x4a, 0x44, 0x94, 0xa8, 0x29, 0x3a, 0x0c, 0xaf, 0xbb,
  0x21, 0x17, 0xe9, 0x22, 0x0e, 0x37, 0x2a, 0xec, 0x02, 0x36, 0x05, 0xe7,
  0x0b, 0x24, 0xe4, 0xe1, 0x7f, 0x33, 0xf2, 0x1d, 0x59, 0x60, 0x3e, 0xac,
  0x50, 0xb2, 0xc2, 0x0a, 0x6a, 0x00, 0xcc, 0xf2, 0xe2, 0x32, 0xeb, 0x38,
  0x20, 0xdb, 0x43, 0x42, 0xf7, 0x3b, 0xfb, 0xed, 0x53, 0x30, 0x06, 0xeb,
  0xe7, 0x4f, 0x02, 0x30, 0x57, 0x04, 0xb9, 0xe4, 0x37, 0x53, 0x2c, 0xea,
  0x4a, 0xcb, 0xf4, 0xef, 0x42, 0xbc, 0xb1, 0xbe, 0x54, 0x7f, 0xb3, 0xa3,
  0x58, 0x23, 0x24, 0xb6, 0x36, 0x79, 0x12, 0x32, 0x63, 0xc5, 0xeb, 0x26,
  0x43, 0x15, 0xb4, 0xdd, 0x27, 0x43, 0xb7, 0xdf, 0x2b, 0xe4, 0xc3, 0xe2,
  0xda, 0x29, 0x31, 0xd0, 0x58, 0xb1, 0x4e, 0x02, 0x1a, 0x19, 0xe0, 0x3e,
  0x79, 0xf5, 0xcb, 0xe2, 0x1e, 0x09, 0x33, 0x2e, 0x43, 0x1b, 0x43, 0x3e,
  0xca, 0x1a, 0x44, 0xdd, 0x24, 0xd7, 0xcf, 0x14, 0xc4, 0x30, 0x36, 0x03,
  0x69, 0xaf, 0xc4, 0x13, 0x49, 0xfb, 0xa7, 0xce, 0x25, 0x44, 0x14, 0xaa,
  0xeb, 0x09, 0x2e, 0x34, 0xcb, 0x1a, 0x24, 0xe2, 0x21, 0xc7, 0xb8, 0x16,
  0x0d, 0x4f, 0xf5, 0xf9, 0xdd, 0xe6, 0x1d, 0xbc, 0x41, 0xdf, 0x17, 0x17,
  0x0b, 0x31, 0x17, 0x30, 0x27, 0x27, 0xbe, 0xde, 0x36, 0x39, 0x0e, 0xd9,
  0x07, 0x0c, 0x1a, 0xf5, 0x38, 0x25, 0x3d, 0xf1, 0x05, 0xc2, 0x1f, 0xf6,
  0x22, 0xcd, 0xc9, 0x0c, 0x7f, 0xcf, 0x0f, 0x36, 0xab, 0x23, 0xd1, 0x10,
  0x4d, 0xa6, 0xee, 0x27, 0xb7, 0xb3, 0xa0, 0xb4, 0x26, 0xec, 0x00, 0x32,
  0xd4, 0xfd, 0xba, 0xb4, 0xf3, 0xf7, 0xd0, 0xa7, 0x5d, 0x2a, 0xe6, 0xad,
  0xd4, 0x3a, 0x2f, 0xda, 0x92, 0xf2, 0xb1, 0xd6, 0x0d, 0x81, 0x3b, 0x1a,
  0xe3, 0x3f, 0xfd, 0x3e, 0x1a, 0x06, 0x2e, 0x3d, 0x28, 0x4a, 0xd4, 0x40,
  0xef, 0x89, 0x0b, 0xd9, 0x07, 0x48, 0x2b, 0xe0, 0x0d, 0xf9, 0xf1, 0x08,
  0xb1, 0xd1, 0x03, 0xca, 0x5b, 0xc5, 0x2f, 0x0d, 0x03, 0xeb, 0x28, 0xd5,
  0xe9, 0x91, 0xf5, 0x50, 0x7e, 0xf2, 0xff, 0xff, 0x04, 0x00, 0x00, 0x00,
  0x40, 0x00, 0x00, 0x00, 0xed, 0x01, 0x00, 0x00, 0xcf, 0x2f, 0x00, 0x00,
  0x9f, 0xf9, 0xff, 0xff, 0x86, 0x1c, 0x00, 0x00, 0x81, 0xf5, 0xff, 0xff,
  0xdf, 0xf4, 0xff, 0xff, 0x85, 0xf3, 0xff, 0xff, 0x52, 0xf7, 0xff, 0xff,
  0x0f, 0xf7, 0xff, 0xff, 0x9e, 0xef, 0xff, 0xff, 0x23, 0xf7, 0xff, 0xff,
  0xd1, 0xf5, 0xff, 0xff, 0x67, 0xe7, 0xff, 0xff, 0x70, 0xf0, 0xff, 0xff,
  0x9f, 0xf5, 0xff, 0xff, 0xdb, 0xf8, 0xff, 0xff, 0xca, 0xf2, 0xff, 0xff,
  0x04, 0x00, 0x00, 0x00, 0x00, 0x09, 0x00, 0x00, 0x5e, 0xb0, 0x5d, 0xc3,
  0x3d, 0x0e, 0x2e, 0x44, 0xf1, 0x55, 0x10, 0x40, 0xfc, 0xfc, 0x04, 0xdd,
  0x6a, 0x8a, 0x56, 0xd2, 0x02, 0x40, 0x6e, 0x12, 0xc4, 0x40, 0x0c, 0xf2,
  0xcd, 0x65, 0xef, 0x1f, 0x5f, 0xa1, 0x51, 0xa6, 0x50, 0x3d, 0x14, 0x26,
  0xdf, 0xe9, 0x0f, 0x70, 0xf5, 0x19, 0x1c, 0x02, 0x29, 0xe5, 0x46, 0x9d,
  0xc3, 0x11, 0x6b, 0xd4, 0x2e, 0x50, 0x42, 0x54, 0xf3, 0x38, 0x40, 0x31,
  0xf1, 0xfa, 0x28, 0xf6, 0xfe, 0x6c, 0x69, 0xc6, 0xcb, 0x1d, 0x03, 0x66,
  0xef, 0x5f, 0x03, 0x3d, 0x0c, 0xc0, 0x54, 0x08, 0x1e, 0x10, 0x34, 0xcc,
  0xe5, 0x13, 0x10, 0x5f, 0x16, 0x1f, 0xd5, 0xdd, 0xf9, 0x9b, 0x07, 0xd3,
  0xe3, 0xf6, 0x22, 0xe4, 0xf9, 0x4a, 0x45, 0x28, 0xdc, 0x51, 0xe3, 0x40,
  0xfa, 0x93, 0xfe, 0x81, 0x0e, 0x24, 0x3b, 0x00, 0xdc, 0x49, 0x04, 0x3b,
  0x58, 0x5a, 0x2f, 0x12, 0x63, 0xae, 0x4e, 0xb3, 0xc0, 0x3a, 0x03, 0x3b,
  0x42, 0x12, 0xe5, 0xf6, 0x34, 0x43, 0xe0, 0xe8, 0x5c, 0xb4, 0x6e, 0xba,
  0x2d, 0x16, 0x44, 0x2a, 0xe5, 0xe1, 0x33, 0x2d, 0xd5, 0xfc, 0x01, 0xf6,
  0x24, 0xbc, 0x53, 0xa4, 0x51, 0x04, 0x42, 0x22, 0xc9, 0x33, 0x41, 0x07,
  0xe1, 0x19, 0xdf, 0x1d, 0x4a, 0xa1, 0x38, 0xe9, 0x36, 0x1a, 0xff, 0x18,
  0xd2, 0xda, 0x45, 0xe5, 0x3d, 0x32, 0xf9, 0xcf, 0x0b, 0xbe, 0x30, 0xfc,
  0xe9, 0x2d, 0x13, 0xda, 0xe4, 0x1f, 0x2d, 0xe9, 0x21, 0x11, 0x34, 0xe1,
  0x33, 0xbd, 0x47, 0x05, 0x46, 0x3a, 0x1e, 0x14, 0xc5, 0xf1, 0x77, 0x20,
  0x1e, 0x48, 0xde, 0xf0, 0xfb, 0xb5, 0x29, 0x09, 0x0f, 0x19, 0x30, 0xd4,
  0xc9, 0x2d, 0x3b, 0x3f, 0x34, 0x06, 0x27, 0xdb, 0xfb, 0xf0, 0xff, 0x87,
  0x1e, 0x7b, 0x0b, 0xfa, 0x35, 0xfc, 0x37, 0x6d, 0x1e, 0x32, 0x2d, 0x1b,
  0x08, 0xb4, 0x58, 0xda, 0x19, 0x0e, 0x3c, 0x19, 0xce, 0x56, 0x37, 0x4c,
  0x00, 0x4d, 0x2c, 0x10, 0x1b, 0xc1, 0x4a, 0xc6, 0x24, 0x26, 0x0d, 0xf1,
  0xec, 0x55, 0x5f, 0x68, 0x2a, 0x7f, 0x43, 0x0c, 0xf6, 0x82, 0x0a, 0xcf,
  0x00, 0x10, 0x11, 0xbb, 0xe2, 0x00, 0x24, 0x6b, 0x34, 0x26, 0xcc, 0xd3,
  0x2c, 0xa6, 0x4b, 0xc6, 0x15, 0x4a, 0xed, 0xfc, 0x29, 0xd5, 0x00, 0x29,
  0xe1, 0x12, 0x08, 0x40, 0x42, 0x9d, 0x39, 0x03, 0xd6, 0x54, 0xdd, 0x36,
  0x20, 0xec, 0xf3, 0x48, 0x3d, 0x25, 0x20, 0x1c, 0x33, 0xd9, 0x17, 0xc2,
  0xc1, 0xfb, 0x2d, 0xc3, 0xce, 0x18, 0x4a, 0xe7, 0xdd, 0x24, 0xe5, 0x41,
  0x2a, 0xbc, 0x62, 0xfe, 0x2f, 0xe3, 0x1f, 0x3d, 0x1d, 0x50, 0xf6, 0xdc,
  0xf9, 0xfb, 0xc7, 0x2c, 0x33, 0xf6, 0x01, 0xd4, 0xc6, 0xe2, 0xdc, 0xdb,
  0xf5, 0x1e, 0x01, 0xc9, 0xc8, 0x0d, 0xf2, 0x0b, 0xe9, 0xe3, 0x22, 0xaa,
  0x45, 0x56, 0x50, 0xf7, 0xf1, 0x5d, 0x08, 0x7f, 0xee, 0x05, 0x40, 0xe4,
  0x14, 0xf7, 0x32, 0xa8, 0xd7, 0x26, 0x16, 0x16, 0x0a, 0x0a, 0x74, 0x23,
  0x49, 0x51, 0x2b, 0x01, 0x13, 0xee, 0x46, 0xf1, 0xd9, 0x0b, 0x1d, 0x32,
  0xdb, 0x42, 0x52, 0x37, 0x51, 0xf2, 0x11, 0xc4, 0x10, 0xc5, 0x52, 0xbd,
  0x18, 0x69, 0x5a, 0x19, 0xdc, 0xf2, 0x2b, 0x53, 0x21, 0x50, 0xcd, 0xcb,
  0x1e, 0xe8, 0x7f, 0xdb, 0x0c, 0x46, 0x54, 0x3f, 0xd0, 0x00, 0x47, 0x2c,
  0x14, 0x38, 0x00, 0xfd, 0x00, 0xc9, 0x32, 0xc3, 0x24, 0xf9, 0x03, 0xfe,
  0xfc, 0x34, 0x61, 0x32, 0x15, 0x23, 0xee, 0xcb, 0x47, 0xcc, 0x03, 0x15,
  0xc5, 0x6c, 0x27, 0xf7, 0xfd, 0xea, 0xdd, 0x0d, 0xd4, 0x44, 0xc3, 0xcf,
  0xea, 0xbe, 0x12, 0x0d, 0xe8, 0x20, 0x64, 0xf6, 0xc9, 0x00, 0x6a, 0x3b,
  0xcd, 0x5e, 0xdc, 0xeb, 0xf8, 0xb0, 0x2a, 0xf5, 0xec, 0x43, 0x55, 0x37,
  0xf0, 0xe4, 0x38, 0xee, 0x02, 0x13, 0x20, 0x18, 0xeb, 0xde, 0x4d, 0x01,
  0x06, 0x57, 0x55, 0x2a, 0x1e, 0x00, 0x4d, 0x6a, 0x35, 0x22, 0xef, 0x39,
  0x20, 0x97, 0x13, 0xf6, 0xe5, 0x60, 0x56, 0xdc, 0x2c, 0x54, 0x14, 0x27,
  0x2a, 0x6f, 0x47, 0x3f, 0x0e, 0xa9, 0x3d, 0xd2, 0x47, 0x72, 0x31, 0x1a,
  0x20, 0x14, 0x3e, 0x13, 0xfb, 0x1a, 0xe4, 0x0d, 0x48, 0xfa, 0xd6, 0x48,
  0x4d, 0x38, 0xb4, 0xfb, 0x0d, 0x47, 0x57, 0x1d, 0xfd, 0xf7, 0x99, 0x58,
  0x33, 0x36, 0xcd, 0x27, 0x20, 0xf8, 0x87, 0xa9, 0xf4, 0x11, 0xa2, 0xd4,
  0x26, 0x21, 0xa4, 0xbd, 0xe6, 0x59, 0x37, 0xf8, 0x53, 0xe6, 0x81, 0xc3,
  0x26, 0xfe, 0xff, 0xad, 0xdb, 0xb0, 0x4d, 0x5a, 0x55, 0x01, 0xf2, 0x94,
  0x2a, 0xeb, 0xed, 0x27, 0xb0, 0xf3, 0xa6, 0xa9, 0x57, 0x5d, 0xcf, 0xf6,
  0x8b, 0x8a, 0x42, 0x8e, 0x93, 0xa8, 0x3c, 0x50, 0xe7, 0x32, 0xb5, 0x19,
  0xe8, 0xcd, 0x3b, 0x39, 0x08, 0xa4, 0x0c, 0xa1, 0x9d, 0x14, 0x27, 0x9c,
  0xe9, 0xe9, 0xd3, 0xb5, 0x43, 0xe4, 0x02, 0x94, 0x2d, 0xf9, 0x14, 0xc2,
  0x94, 0x05, 0x17, 0x04, 0xa3, 0x5d, 0x62, 0x92, 0x35, 0xf6, 0x1a, 0xd0,
  0x94, 0x4c, 0x8c, 0xd9, 0xb5, 0x2b, 0xd2, 0xbc, 0x23, 0xf2, 0xad, 0x02,
  0xf4, 0x43, 0x3c, 0x5e, 0x3e, 0x32, 0xd4, 0x32, 0x31, 0x30, 0xfd, 0x4e,
  0x67, 0x2a, 0xff, 0x55, 0x06, 0xe1, 0xa1, 0x9f, 0x11, 0xf4, 0x20, 0xcb,
  0x13, 0x7b, 0x61, 0x30, 0xd4, 0x24, 0x0f, 0x47, 0xf6, 0xf7, 0x3d, 0xeb,
  0x0c, 0x9e, 0x64, 0xde, 0xfc, 0x71, 0x72, 0xe6, 0xfc, 0x1c, 0xf8, 0x5a,
  0x21, 0x5c, 0x3c, 0x20, 0x55, 0x9b, 0x3e, 0xaa, 0x26, 0x48, 0xe4, 0x27,
  0x07, 0x18, 0x0d, 0xfd, 0xf8, 0x45, 0xcc, 0xd1, 0x49, 0x98, 0x6a, 0xe1,
  0x25, 0x5f, 0x23, 0xf4, 0x18, 0xf3, 0xcf, 0x61, 0x05, 0x33, 0xcd, 0x26,
  0xfa, 0xce, 0x52, 0x0b, 0xea, 0xf7, 0x1a, 0xd7, 0xd1, 0x4b, 0x54, 0x0d,
  0x27, 0x4b, 0x32, 0x47, 0x3c, 0xaf, 0x65, 0xe9, 0x38, 0xf2, 0x4e, 0x2d,
  0xda, 0x63, 0x4c, 0xf1, 0x33, 0x28, 0xe3, 0x1a, 0xd9, 0xe9, 0xfa, 0x03,
  0x3b, 0x38, 0x26, 0xf8, 0x0a, 0x45, 0xf5, 0x39, 0x38, 0x0c, 0x14, 0xc5,
  0xd1, 0xd1, 0x67, 0x08, 0xcd, 0x20, 0x58, 0x06, 0x13, 0x43, 0x11, 0x00,
  0xe3, 0x65, 0x40, 0x1a, 0x37, 0x81, 0x3f, 0xb4, 0x2b, 0x74, 0x19, 0x0f,
  0xcd, 0x13, 0x35, 0xe0, 0xf2, 0x15, 0xd4, 0xf8, 0x35, 0x9e, 0x37, 0xa8,
  0xf3, 0x3c, 0x58, 0xff, 0x00, 0x30, 0x05, 0x3b, 0x1e, 0x52, 0x44, 0xf1,
  0x52, 0xda, 0x3e, 0xc4, 0xff, 0xf5, 0x55, 0x31, 0xfc, 0xf8, 0x1f, 0xde,
  0xf4, 0x17, 0x01, 0x26, 0x33, 0x83, 0x07, 0x05, 0xff, 0x44, 0x60, 0x08,
  0x15, 0xe6, 0x50, 0x4e, 0x03, 0x55, 0xf8, 0x19, 0xf1, 0xe1, 0x40, 0xb8,
  0x3d, 0xed, 0x2d, 0x34, 0xef, 0xf9, 0x47, 0x28, 0xcf, 0x13, 0x23, 0x0e,
  0x48, 0x0a, 0xf4, 0xa5, 0x0f, 0x21, 0x2f, 0xe6, 0xfc, 0x32, 0x09, 0x20,
  0xe9, 0x20, 0xdf, 0xfa, 0xf8, 0xcf, 0x1f, 0xc5, 0x12, 0xf8, 0xef, 0x1e,
  0x03, 0x39, 0x36, 0xec, 0x42, 0x3d, 0xfd, 0x14, 0x13, 0xf6, 0x15, 0xc1,
  0xdf, 0x6f, 0x65, 0xd6, 0x3a, 0x0f, 0x4f, 0x6a, 0x24, 0x05, 0x2e, 0x22,
  0x2e, 0xb0, 0x5a, 0xd0, 0x17, 0x7f, 0xfa, 0xe8, 0xd5, 0x1a, 0x4a, 0x05,
  0xe9, 0x1c, 0x06, 0xde, 0x58, 0x9a, 0x60, 0xd3, 0x34, 0x2a, 0xfe, 0xcd,
  0x0d, 0x39, 0x61, 0xfe, 0xfa, 0x3a, 0x07, 0x15, 0x0b, 0x63, 0xee, 0x3b,
  0xd7, 0xd7, 0xd8, 0x12, 0xf4, 0x09, 0xcd, 0x02, 0x19, 0xe7, 0xdb, 0x04,
  0xdb, 0x2a, 0xd0, 0x00, 0xe2, 0x13, 0xb8, 0xd5, 0xdc, 0x04, 0x20, 0xdb,
  0xd0, 0xc5, 0xe1, 0x24, 0xe1, 0x65, 0x0f, 0x0d, 0x27, 0xfb, 0xfd, 0x05,
  0xe7, 0x06, 0xe5, 0xf7, 0xd1, 0x04, 0xf2, 0x29, 0x20, 0x31, 0xc7, 0x26,
  0x43, 0x2a, 0xb6, 0xfc, 0xd1, 0x19, 0xf9, 0xf2, 0xd5, 0xf7, 0x02, 0x13,
  0x10, 0x7f, 0xc2, 0xfa, 0x38, 0xe9, 0x0d, 0x06, 0x02, 0x19, 0x00, 0x22,
  0xdb, 0x12, 0x11, 0xd3, 0x06, 0x54, 0xda, 0x53, 0x13, 0x18, 0xdc, 0xec,
  0x03, 0xe7, 0x17, 0x24, 0x26, 0xe8, 0xe3, 0xde, 0x24, 0x52, 0x05, 0x1d,
  0x0a, 0xef, 0xc0, 0xf2, 0x35, 0xff, 0x14, 0x26, 0xca, 0xfa, 0xce, 0x39,
  0x2c, 0x4c, 0xe6, 0x3a, 0x35, 0xe9, 0xd5, 0x0e, 0x20, 0xe4, 0xdf, 0xdd,
  0xed, 0x18, 0xff, 0xdc, 0x16, 0x63, 0x0d, 0x47, 0xde, 0x37, 0xc3, 0x00,
  0xf5, 0xdc, 0xdb, 0xd1, 0xd2, 0xd9, 0xde, 0x05, 0xf5, 0xbd, 0x2d, 0xd8,
  0x35, 0x19, 0x7f, 0xe8, 0xbb, 0x34, 0xe9, 0xf2, 0xfa, 0x27, 0x2a, 0xd0,
  0x33, 0xb6, 0x75, 0xfc, 0x27, 0x68, 0x05, 0xf2, 0xe9, 0xf0, 0x04, 0xfc,
  0x2a, 0x6a, 0x32, 0xe3, 0x14, 0xed, 0x5b, 0x82, 0x47, 0x39, 0x6d, 0x19,
  0x19, 0xc5, 0xf9, 0x39, 0xf4, 0x2e, 0x09, 0xdc, 0xd9, 0xa5, 0xec, 0x04,
  0xe1, 0x66, 0xf7, 0x13, 0x31, 0x2d, 0x05, 0xf1, 0xff, 0x39, 0x1f, 0x40,
  0xf1, 0xfd, 0xe6, 0xb6, 0xf5, 0x31, 0xfb, 0xb9, 0x23, 0x3a, 0x06, 0xd3,
  0x13, 0x11, 0x39, 0x2e, 0x18, 0x99, 0xfb, 0x9f, 0x41, 0x5e, 0x24, 0xe6,
  0x3d, 0xc2, 0xde, 0x05, 0xf2, 0x49, 0xcd, 0x3a, 0x3b, 0xb3, 0xf1, 0xfe,
  0x25, 0x65, 0x4b, 0xdb, 0xfe, 0x32, 0xd1, 0x65, 0xe3, 0x6e, 0x1c, 0x02,
  0x46, 0xbd, 0x0f, 0xf8, 0xf6, 0x3d, 0xec, 0x2f, 0xf8, 0xe6, 0x05, 0x52,
  0xfd, 0x72, 0x2e, 0x3d, 0x06, 0xac, 0x40, 0xfe, 0xfe, 0x63, 0x08, 0x37,
  0xef, 0x11, 0x14, 0x65, 0x4d, 0x3b, 0x38, 0x1f, 0xf7, 0x81, 0x19, 0x10,
  0x1c, 0x4f, 0x1c, 0x06, 0xe7, 0xeb, 0xdd, 0x1d, 0x33, 0x28, 0xc8, 0x32,
  0xe9, 0xc5, 0x02, 0xa9, 0xda, 0x24, 0x28, 0x36, 0xdb, 0x49, 0xee, 0xf0,
  0xec, 0xff, 0x45, 0x3d, 0x21, 0xb8, 0x64, 0x8a, 0x38, 0x04, 0x2a, 0xc7,
  0x05, 0x2d, 0xf8, 0x5e, 0xe1, 0x34, 0xe7, 0x1e, 0xf5, 0xdc, 0xdb, 0xad,
  0xf4, 0x06, 0x22, 0x03, 0x1c, 0x2f, 0xe3, 0x1e, 0xc6, 0x45, 0xef, 0x0d,
  0x04, 0xc1, 0xea, 0x15, 0xf7, 0xd5, 0x36, 0xbb, 0xed, 0x59, 0xdc, 0x22,
  0x26, 0x14, 0xeb, 0x31, 0xfe, 0xc2, 0x28, 0xd1, 0x24, 0x50, 0x70, 0xbb,
  0xfb, 0x46, 0x47, 0x3a, 0x1b, 0x07, 0x04, 0x1d, 0x3d, 0xc5, 0x51, 0x02,
  0x50, 0x59, 0x39, 0x44, 0xed, 0x10, 0x45, 0x44, 0x2a, 0xf6, 0xdc, 0xc1,
  0x47, 0xc8, 0x01, 0xa7, 0x4f, 0x23, 0xf2, 0x2d, 0x18, 0x2c, 0x2d, 0x55,
  0xfa, 0x18, 0x20, 0x01, 0xf6, 0xee, 0x50, 0x83, 0x1e, 0xff, 0xeb, 0xf1,
  0x50, 0x05, 0x04, 0x00, 0xe8, 0x14, 0x3b, 0xf3, 0x17, 0xf5, 0x03, 0x0a,
  0xcf, 0x35, 0x1f, 0xfb, 0x12, 0x35, 0xe5, 0xff, 0x0d, 0xfe, 0x44, 0x18,
  0xbb, 0xe3, 0x00, 0x8b, 0xcc, 0x30, 0xff, 0xeb, 0x33, 0xe1, 0xcf, 0xb2,
  0xfb, 0xfc, 0xb8, 0x2f, 0xe5, 0xb5, 0xc5, 0xa0, 0xcd, 0xed, 0x40, 0xc5,
  0x4c, 0xb5, 0xec, 0xe7, 0xb3, 0xdb, 0x1a, 0xca, 0x15, 0xa2, 0xfc, 0xde,
  0x25, 0xfb, 0x4d, 0x20, 0x04, 0xc1, 0x4f, 0xdb, 0xdf, 0x0c, 0xea, 0x17,
  0x04, 0xdb, 0xe2, 0xff, 0x2e, 0xd4, 0x5b, 0xe7, 0x0f, 0x21, 0x1b, 0x96,
  0xc8, 0xa9, 0xf0, 0xbb, 0x0e, 0xc9, 0x10, 0xc0, 0xdf, 0xf9, 0xff, 0xcc,
  0x0d, 0x1e, 0x48, 0xb1, 0xef, 0x06, 0xa8, 0xf6, 0x1e, 0xae, 0xed, 0x91,
  0xdb, 0x7f, 0xe5, 0x5b, 0xbf, 0x0a, 0x4b, 0x64, 0x22, 0x0b, 0xf4, 0xfd,
  0x31, 0x17, 0x49, 0xa3, 0x05, 0x76, 0x39, 0x13, 0x44, 0xe3, 0xfa, 0x4e,
  0x14, 0xf6, 0xee, 0x30, 0x2d, 0x16, 0x7d, 0xc0, 0x4c, 0x6a, 0xf1, 0x19,
  0x26, 0x00, 0x4e, 0x46, 0x17, 0x34, 0xfb, 0x25, 0xe0, 0x3f, 0xf8, 0x08,
  0xad, 0xe6, 0xab, 0x29, 0x04, 0xdb, 0x0c, 0x22, 0x3e, 0xa4, 0xc3, 0xca,
  0x1e, 0x46, 0xb3, 0x5f, 0x19, 0x44, 0xad, 0x36, 0xdf, 0xe2, 0x30, 0x48,
  0xed, 0xbc, 0x01, 0xbf, 0xeb, 0x7d, 0x1e, 0xff, 0x03, 0xd1, 0x0e, 0xcf,
  0xfc, 0x15, 0x39, 0xc8, 0xe6, 0x1f, 0x11, 0x10, 0x38, 0x7f, 0xff, 0x52,
  0x3e, 0x2b, 0xfa, 0x16, 0x02, 0xdc, 0xde, 0xfb, 0x1b, 0xda, 0x26, 0xd9,
  0x55, 0x7a, 0x0f, 0x61, 0xd5, 0xdf, 0xb1, 0x1f, 0xd2, 0x18, 0x18, 0xf0,
  0x07, 0xd3, 0xfb, 0xce, 0x39, 0x7b, 0xd3, 0x31, 0x0b, 0xee, 0x0e, 0xcb,
  0x1b, 0xf1, 0x4f, 0x1b, 0xf8, 0xc1, 0x32, 0xb3, 0x11, 0x64, 0xee, 0x75,
  0xd1, 0xc6, 0xfc, 0xbb, 0xaf, 0x13, 0x19, 0xf4, 0x1b, 0xb1, 0xff, 0xd9,
  0x3d, 0x6a, 0x0a, 0x58, 0xde, 0x39, 0xd1, 0xf3, 0x22, 0x39, 0xb0, 0xd5,
  0xcf, 0x23, 0x07, 0xbe, 0xe3, 0x37, 0xb8, 0x2f, 0x14, 0xf6, 0xd7, 0xf6,
  0xd9, 0xd0, 0xdd, 0x26, 0xca, 0xaa, 0xe1, 0xdb, 0x56, 0xcb, 0x6e, 0xf5,
  0x3e, 0x2f, 0x2d, 0x3a, 0xbd, 0x41, 0xfc, 0x15, 0xe2, 0xef, 0xff, 0x1a,
  0x2a, 0x0f, 0x26, 0x9a, 0x1d, 0x1d, 0x63, 0xf0, 0x00, 0x00, 0x6f, 0x02,
  0xf1, 0x3f, 0x2b, 0xc4, 0x28, 0xc4, 0x26, 0x10, 0x42, 0xfd, 0x4b, 0x42,
  0xc1, 0x17, 0x1d, 0xd2, 0xfc, 0xf3, 0xc0, 0xdc, 0xd8, 0xd5, 0x61, 0x92,
  0xce, 0x64, 0x4d, 0x07, 0x05, 0x4f, 0xee, 0x2f, 0x4a, 0x59, 0xd5, 0x26,
  0xdc, 0xec, 0x7f, 0xca, 0x41, 0x6f, 0xd3, 0xdc, 0x35, 0xcb, 0xe1, 0x12,
  0x49, 0xdf, 0xd3, 0x3e, 0xc8, 0xec, 0x11, 0xcd, 0x3b, 0x09, 0xe6, 0xb6,
  0xca, 0xdc, 0x20, 0x31, 0x04, 0x46, 0x2c, 0xf9, 0xd3, 0xc4, 0x0f, 0xf4,
  0xfd, 0x1a, 0xe2, 0x0c, 0xef, 0xfe, 0x52, 0x1b, 0xf2, 0x25, 0x2a, 0x2f,
  0xd5, 0xbc, 0xfe, 0x0c, 0xc2, 0x2d, 0x06, 0xd8, 0xf9, 0x60, 0xb0, 0x20,
  0xd4, 0x10, 0x16, 0x24, 0xe6, 0xdf, 0x06, 0xaf, 0xe1, 0x52, 0x2f, 0x31,
  0x2a, 0x59, 0x0a, 0x1c, 0xdd, 0x5a, 0x51, 0x2b, 0x29, 0x7f, 0xb0, 0x0e,
  0x1d, 0x23, 0xf1, 0x20, 0xec, 0x3d, 0x22, 0xc6, 0x02, 0x19, 0x42, 0x49,
  0xa8, 0xf7, 0xb5, 0xee, 0xcc, 0x60, 0x41, 0x2f, 0xc1, 0x4d, 0xde, 0x5c,
  0x54, 0xc0, 0xcc, 0xb9, 0x01, 0x01, 0x12, 0xc4, 0xc8, 0x5c, 0x2a, 0xb6,
  0xdc, 0xe7, 0x08, 0x22, 0x4b, 0x6c, 0x43, 0x18, 0xb1, 0x2c, 0xc0, 0x1b,
  0xd5, 0x20, 0xd3, 0xb4, 0xc6, 0xc9, 0x32, 0x4a, 0x4f, 0xda, 0x2f, 0xc5,
  0x1a, 0x6e, 0x34, 0x3c, 0x56, 0x1f, 0xc8, 0x01, 0x17, 0xad, 0x36, 0x2a,
  0xd2, 0xfa, 0x37, 0x0f, 0x02, 0x6e, 0x26, 0x35, 0x43, 0x37, 0xba, 0xea,
  0xf1, 0xd5, 0x25, 0xf7, 0x0e, 0xb5, 0x4d, 0xbd, 0x60, 0x65, 0x06, 0x23,
  0x10, 0x06, 0x0f, 0x25, 0x2c, 0x25, 0xee, 0x2f, 0x48, 0xaa, 0xe5, 0x34,
  0xfa, 0x54, 0xf0, 0x6d, 0x59, 0xb5, 0x4a, 0x0d, 0x16, 0x54, 0xd4, 0x1a,
  0x4f, 0x35, 0x3e, 0xd3, 0x31, 0x78, 0x44, 0x41, 0x3c, 0x05, 0x09, 0xda,
  0x28, 0xcd, 0x47, 0x26, 0xc6, 0x18, 0x12, 0xbb, 0x3a, 0x0e, 0x18, 0x00,
  0x40, 0xec, 0x1f, 0x09, 0x1f, 0xf5, 0x1e, 0x02, 0xd5, 0x09, 0xe2, 0x26,
  0x35, 0x81, 0x1d, 0xbc, 0x14, 0x1f, 0x25, 0x02, 0xc3, 0xe7, 0x49, 0xda,
  0x47, 0x32, 0x04, 0xf2, 0x19, 0xbc, 0x44, 0x0c, 0xfb, 0x0e, 0x22, 0x0e,
  0x2a, 0x08, 0x0e, 0x2d, 0x28, 0x03, 0xc9, 0xbe, 0x4d, 0xb6, 0x66, 0xf0,
  0xe2, 0x0f, 0x60, 0x30, 0x31, 0xe0, 0x0a, 0x32, 0xd9, 0x31, 0x44, 0x2a,
  0x59, 0x02, 0x62, 0x00, 0x15, 0x1c, 0x25, 0xee, 0xf6, 0xfe, 0x60, 0xf4,
  0xee, 0xf3, 0xf6, 0x17, 0xe2, 0xab, 0x32, 0xdf, 0xd0, 0xf6, 0x35, 0xf7,
  0xdf, 0xe1, 0x3e, 0xf8, 0x0f, 0x2d, 0x22, 0xcc, 0xf1, 0x03, 0x30, 0x8f,
  0xcd, 0x03, 0x57, 0xe9, 0x24, 0x53, 0x3e, 0x0c, 0xfc, 0x45, 0x57, 0xea,
  0x23, 0x05, 0xee, 0xf0, 0x29, 0x54, 0x58, 0x4a, 0x22, 0xfb, 0xfd, 0x4d,
  0x22, 0x57, 0x4c, 0x11, 0x16, 0x9d, 0xf4, 0xfb, 0x2d, 0x41, 0xfa, 0x12,
  0x46, 0x1b, 0x20, 0x62, 0x3d, 0x7a, 0x09, 0x24, 0x5e, 0xe4, 0x68, 0xde,
  0x23, 0x2a, 0x00, 0x48, 0x27, 0x35, 0x1c, 0x66, 0x1c, 0x42, 0x40, 0x17,
  0x46, 0xe9, 0x50, 0x04, 0xd8, 0x5f, 0x3f, 0x0a, 0xea, 0x29, 0x25, 0x21,
  0x2e, 0x3d, 0xee, 0xf8, 0x27, 0xf6, 0x1c, 0xc8, 0x2c, 0x17, 0x68, 0xf0,
  0x18, 0xe7, 0x3e, 0xf6, 0x2f, 0x49, 0x41, 0xdd, 0x09, 0xbe, 0x21, 0xd0,
  0x37, 0x19, 0x1a, 0xde, 0xd0, 0x0f, 0x34, 0x45, 0x11, 0x78, 0xe5, 0x46,
  0x44, 0xd9, 0x05, 0xf9, 0x3b, 0x42, 0x2c, 0xf3, 0xf8, 0x2c, 0x3b, 0xf2,
  0x15, 0x0f, 0xeb, 0xea, 0x53, 0xec, 0x3f, 0xee, 0x42, 0x2f, 0x37, 0x3b,
  0x21, 0x4b, 0x19, 0x1d, 0xdd, 0x0e, 0xf1, 0xd9, 0xfd, 0xed, 0x6c, 0x05,
  0xf7, 0x2e, 0x6b, 0xd1, 0xce, 0xf2, 0xf9, 0x33, 0xdd, 0x23, 0x1e, 0x3a,
  0x11, 0xd9, 0x1b, 0xe2, 0x00, 0x7f, 0x21, 0x26, 0xc7, 0x3a, 0x33, 0x69,
  0xe7, 0x5e, 0x19, 0xdc, 0xfb, 0xf1, 0x76, 0xe3, 0x41, 0x3b, 0x44, 0xd4,
  0x11, 0x14, 0x5d, 0x39, 0xe9, 0x74, 0x03, 0x05, 0xd6, 0xfb, 0xff, 0xff,
  0x04, 0x00, 0x00, 0x00, 0x40, 0x00, 0x00, 0x00, 0x12, 0xee, 0xff, 0xff,
  0x1e, 0xf3, 0xff, 0xff, 0xe6, 0xef, 0xff, 0xff, 0xd5, 0xec, 0xff, 0xff,
  0x5b, 0xf4, 0xff, 0xff, 0xbe, 0xed, 0xff, 0xff, 0x95, 0xf3, 0xff, 0xff,
  0xfc, 0x58, 0x00, 0x00, 0xee, 0xee, 0xff, 0xff, 0x31, 0xeb, 0xff, 0xff,
  0x86, 0xfa, 0xff, 0xff, 0x6c, 0x4f, 0x00, 0x00, 0x73, 0xf5, 0xff, 0xff,
  0x9f, 0x43, 0x00, 0x00, 0x2d, 0xf7, 0xff, 0xff, 0x23, 0xfc, 0xff, 0xff,
  0x22, 0xfc, 0xff, 0xff, 0x04, 0x00, 0x00, 0x00, 0x00, 0x02, 0x00, 0x00,
  0x07, 0x88, 0xaf, 0x84, 0x55, 0x9c, 0x1c, 0xec, 0x5e, 0x81, 0xa4, 0x7d,
  0x59, 0x63, 0xd5, 0x27, 0xcd, 0x37, 0xbe, 0xca, 0x4f, 0xf3, 0x22, 0xb3,
  0xdf, 0xa2, 0x70, 0x7f, 0x84, 0x8a, 0x2b, 0x36, 0x36, 0x64, 0x18, 0x7f,
  0x70, 0x57, 0xe9, 0xb7, 0xcb, 0x48, 0x39, 0x28, 0x74, 0xbe, 0xf6, 0x05,
  0x6f, 0x69, 0x4e, 0x70, 0x76, 0x3a, 0x36, 0xf6, 0x36, 0x0e, 0x7f, 0xcb,
  0x44, 0xed, 0xde, 0x27, 0xf3, 0xb3, 0x14, 0x35, 0x91, 0xbc, 0x36, 0xb8,
  0x74, 0x7f, 0x1a, 0xbb, 0x0d, 0xc9, 0xe7, 0xa4, 0x62, 0x74, 0xfb, 0x52,
  0x5f, 0x6f, 0x70, 0xa3, 0xc6, 0x22, 0x3a, 0xc7, 0x6d, 0x23, 0x7f, 0x08,
  0x4e, 0x1c, 0xbf, 0xaf, 0x02, 0xb8, 0xe5, 0x7f, 0xb6, 0xfe, 0x05, 0xfe,
  0xd5, 0x14, 0x3e, 0xa6, 0x0d, 0x7f, 0xd8, 0xcc, 0x58, 0xf7, 0x5b, 0x9c,
  0x19, 0x42, 0xd8, 0xc1, 0x44, 0x69, 0xef, 0x53, 0x1c, 0x0e, 0xb8, 0x87,
  0x9f, 0x0c, 0xab, 0x50, 0x7f, 0xec, 0x9f, 0xaa, 0x09, 0xe2, 0x93, 0x99,
  0x18, 0xd1, 0x7f, 0x4f, 0xef, 0x2c, 0x49, 0xed, 0x4f, 0xe4, 0x74, 0xbb,
  0x0e, 0x18, 0x30, 0x49, 0xe5, 0x49, 0x2c, 0x82, 0xe6, 0xb7, 0x82, 0x4f,
  0x25, 0x0f, 0xb5, 0x39, 0x81, 0x2c, 0x3f, 0xd1, 0x09, 0x02, 0xa9, 0xa3,
  0xc0, 0xf6, 0x86, 0x89, 0x6f, 0x0c, 0x03, 0x34, 0x0e, 0x8b, 0x68, 0x81,
  0xa4, 0xc3, 0xcb, 0xe8, 0x0b, 0x3b, 0x9c, 0x7f, 0xe8, 0xe3, 0xf4, 0x76,
  0xa8, 0xca, 0x22, 0x2f, 0xa3, 0xb7, 0x16, 0xcd, 0xab, 0x36, 0xad, 0x16,
  0x46, 0xa8, 0xa1, 0x4c, 0x96, 0x81, 0x58, 0x8f, 0xf3, 0xe2, 0x1b, 0xb3,
  0x53, 0xce, 0xa4, 0x7f, 0x0e, 0x1f, 0xca, 0xf8, 0xff, 0xe9, 0xf8, 0x0c,
  0xd3, 0x70, 0xee, 0x0c, 0xfe, 0x5a, 0x58, 0x06, 0x4a, 0x15, 0x7f, 0x92,
  0x63, 0xe8, 0x4c, 0xfd, 0x24, 0x06, 0x3f, 0xff, 0x26, 0xe1, 0xfb, 0x61,
  0x8d, 0x0c, 0xbd, 0x5e, 0xdc, 0x4b, 0x1e, 0x81, 0x5f, 0x38, 0x61, 0x10,
  0xc4, 0x7f, 0x11, 0xdd, 0x61, 0x5b, 0x37, 0x00, 0x34, 0xb0, 0x49, 0x3d,
  0x27, 0xb0, 0x25, 0x92, 0xf4, 0x44, 0x99, 0x0a, 0xb8, 0x14, 0x2f, 0xe8,
  0x81, 0xcf, 0x1b, 0x3c, 0x1c, 0x3c, 0x9f, 0xb7, 0x37, 0xcb, 0xfb, 0x7f,
  0xd0, 0xa9, 0xe8, 0x17, 0xd9, 0x27, 0xf3, 0xf1, 0xa5, 0x86, 0x8e, 0xe7,
  0x93, 0x6f, 0xb9, 0x68, 0xc1, 0x98, 0x81, 0x37, 0x13, 0x3a, 0xae, 0x79,
  0x7f, 0x60, 0x0e, 0xfa, 0xd7, 0x60, 0xd5, 0xa8, 0xc8, 0xd9, 0x5d, 0x0a,
  0xfd, 0x45, 0x58, 0x28, 0x81, 0x12, 0x20, 0xf3, 0x11, 0x9a, 0xfe, 0x88,
  0x55, 0xfd, 0x66, 0xb3, 0x2b, 0xd2, 0x7c, 0x96, 0xed, 0x33, 0xf7, 0xa4,
  0xcc, 0x47, 0x06, 0x6a, 0xb0, 0xb9, 0x9a, 0x7f, 0xcf, 0xf5, 0x01, 0xb5,
  0xe9, 0xe4, 0x96, 0xd4, 0xda, 0xcc, 0x99, 0x32, 0x1b, 0x36, 0x5b, 0x9c,
  0xc3, 0xa2, 0x7f, 0x8d, 0xd1, 0x17, 0xb5, 0xbf, 0x07, 0x35, 0xdc, 0x7f,
  0x1e, 0x32, 0xd2, 0x64, 0xe9, 0x15, 0xa5, 0xc9, 0x12, 0xb6, 0xb1, 0xe0,
  0xc3, 0xbe, 0xf0, 0x7d, 0x4c, 0xf1, 0x0d, 0x73, 0xd0, 0x7f, 0xaf, 0xcc,
  0x79, 0xb0, 0x47, 0xc0, 0xab, 0x29, 0x65, 0x09, 0x51, 0x5e, 0x7f, 0xae,
  0xfc, 0x26, 0x23, 0x13, 0x32, 0xd3, 0x81, 0xec, 0xde, 0xdd, 0x3a, 0x7f,
  0x90, 0x98, 0x0c, 0x0c, 0xf9, 0x2f, 0xa8, 0x37, 0x4b, 0x7f, 0x47, 0x62,
  0xc4, 0xd6, 0x76, 0xc2, 0xfb, 0xbe, 0x7c, 0x98, 0x1f, 0x08, 0x31, 0x15,
  0xf4, 0x2c, 0x93, 0x95, 0x40, 0x0d, 0xf8, 0x7f, 0xdc, 0x35, 0xd0, 0x67,
  0x20, 0xd9, 0x9d, 0xda, 0xfb, 0x6e, 0xe2, 0x4c, 0xc0, 0xf4, 0x77, 0xe3,
  0x60, 0x35, 0x70, 0x3d, 0xed, 0x04, 0x7f, 0xbf, 0x2e, 0xfe, 0xff, 0xff,
  0x04, 0x00, 0x00, 0x00, 0x80, 0x00, 0x00, 0x00, 0x2f, 0x37, 0x00, 0x00,
  0x44, 0xfc, 0xff, 0xff, 0xb1, 0xeb, 0xff, 0xff, 0x5e, 0xd8, 0xff, 0xff,
  0x24, 0x02, 0x00, 0x00, 0x12, 0xe9, 0xff, 0xff, 0xfd, 0x2f, 0x00, 0x00,
  0x0b, 0xf4, 0xff, 0xff, 0xd7, 0xfd, 0xff, 0xff, 0x21, 0xe9, 0xff, 0xff,
  0x3b, 0x36, 0x00, 0x00, 0x00, 0x00, 0x00, 0x00, 0x4e, 0x2a, 0x00, 0x00,
  0x3f, 0xf5, 0xff, 0xff, 0xd6, 0x2f, 0x00, 0x00, 0xce, 0xed, 0xff, 0xff,
  0x67, 0x1f, 0x00, 0x00, 0x37, 0xe1, 0xff, 0xff, 0x48, 0x2f, 0x00, 0x00,
  0xf6, 0x20, 0x00, 0x00, 0x63, 0x44, 0x00, 0x00, 0xd4, 0xec, 0xff, 0xff,
  0xe4, 0x00, 0x00, 0x00, 0xfe, 0x2e, 0x00, 0x00, 0x00, 0x00, 0x00, 0x00,
  0x49, 0x1a, 0x00, 0x00, 0x39, 0x1d, 0x00, 0x00, 0xa1, 0xe9, 0xff, 0xff,
  0xa8, 0x2b, 0x00, 0x00, 0x3f, 0xf8, 0xff, 0xff, 0x82, 0x28, 0x00, 0x00,
  0x6e, 0xe3, 0xff, 0xff, 0xba, 0xfe, 0xff, 0xff, 0x04, 0x00, 0x00, 0x00,
  0x40, 0x00, 0x00, 0x00, 0x69, 0x1e, 0xc0, 0xac, 0xf4, 0x9c, 0x45, 0xb6,
  0xc5, 0x00, 0x7c, 0x28, 0x3c, 0xd7, 0x13, 0xa3, 0x0e, 0x90, 0x6e, 0x3f,
  0x2c, 0xa3, 0xf8, 0x56, 0x0b, 0x71, 0x7c, 0xb9, 0x7f, 0xac, 0x6e, 0xdb,
  0x8c, 0xe2, 0x51, 0x64, 0x01, 0xda, 0xcc, 0x5d, 0xfd, 0x4a, 0xd1, 0x27,
  0x89, 0x02, 0x81, 0xde, 0x91, 0xfc, 0x03, 0xaf, 0x9e, 0x11, 0x32, 0xd9,
  0x0c, 0xce, 0x12, 0x51, 0xa4, 0x56, 0xe4, 0x1b, 0x06, 0xff, 0xff, 0xff,
  0x04, 0x00, 0x00, 0x00, 0x08, 0x00, 0x00, 0x00, 0x3b, 0x0d, 0x00, 0x00,
  0x00, 0xf3, 0xff, 0xff, 0x1a, 0xff, 0xff, 0xff, 0x04, 0x00, 0x00, 0x00,
  0x08, 0x00, 0x00, 0x00, 0x01, 0x00, 0x00, 0x00, 0x02, 0x00, 0x00, 0x00,
  0x4c, 0xe9, 0xff, 0xff, 0x50, 0xe9, 0xff, 0xff, 0x0f, 0x00, 0x00, 0x00,
  0x4d, 0x4c, 0x49, 0x52, 0x20, 0x43, 0x6f, 0x6e, 0x76, 0x65, 0x72, 0x74,
  0x65, 0x64, 0x2e, 0x00, 0x01, 0x00, 0x00, 0x00, 0x14, 0x00, 0x00, 0x00,
  0x00, 0x00, 0x0e, 0x00, 0x18, 0x00, 0x14, 0x00, 0x10, 0x00, 0x0c, 0x00,
  0x08, 0x00, 0x04, 0x00, 0x0e, 0x00, 0x00, 0x00, 0x14, 0x00, 0x00, 0x00,
  0x1c, 0x00, 0x00, 0x00, 0x28, 0x03, 0x00, 0x00, 0x2c, 0x03, 0x00, 0x00,
  0x30, 0x03, 0x00, 0x00, 0x04, 0x00, 0x00, 0x00, 0x6d, 0x61, 0x69, 0x6e,
  0x00, 0x00, 0x00, 0x00, 0x0c, 0x00, 0x00, 0x00, 0xf0, 0x02, 0x00, 0x00,
  0x94, 0x02, 0x00, 0x00, 0x30, 0x02, 0x00, 0x00, 0xec, 0x01, 0x00, 0x00,
  0xa8, 0x01, 0x00, 0x00, 0x64, 0x01, 0x00, 0x00, 0x20, 0x01, 0x00, 0x00,
  0xec, 0x00, 0x00, 0x00, 0xa8, 0x00, 0x00, 0x00, 0x70, 0x00, 0x00, 0x00,
  0x34, 0x00, 0x00, 0x00, 0x10, 0x00, 0x00, 0x00, 0x00, 0x00, 0x0a, 0x00,
  0x10, 0x00, 0x0c, 0x00, 0x08, 0x00, 0x04, 0x00, 0x0a, 0x00, 0x00, 0x00,
  0x0c, 0x00, 0x00, 0x00, 0x10, 0x00, 0x00, 0x00, 0x06, 0x00, 0x00, 0x00,
  0x01, 0x00, 0x00, 0x00, 0x17, 0x00, 0x00, 0x00, 0x01, 0x00, 0x00, 0x00,
  0x16, 0x00, 0x00, 0x00, 0xd2, 0xfd, 0xff, 0xff, 0x1c, 0x00, 0x00, 0x00,
  0x00, 0x00, 0x00, 0x09, 0x1c, 0x00, 0x00, 0x00, 0x20, 0x00, 0x00, 0x00,
  0x05, 0x00, 0x00, 0x00, 0x00, 0x00, 0x06, 0x00, 0x08, 0x00, 0x04, 0x00,
  0x06, 0x00, 0x00, 0x00, 0x00, 0x00, 0x80, 0x3f, 0x01, 0x00, 0x00, 0x00,
  0x16, 0x00, 0x00, 0x00, 0x01, 0x00, 0x00, 0x00, 0x15, 0x00, 0x00, 0x00,
  0x0a, 0xfe, 0xff, 0xff, 0x14, 0x00, 0x00, 0x00, 0x00, 0x00, 0x00, 0x08,
  0x10, 0x00, 0x00, 0x00, 0x14, 0x00, 0x00, 0x00, 0x04, 0x00, 0x00, 0x00,
  0x54, 0xea, 0xff, 0xff, 0x01, 0x00, 0x00, 0x00, 0x15, 0x00, 0x00, 0x00,
  0x03, 0x00, 0x00, 0x00, 0x14, 0x00, 0x00, 0x00, 0x03, 0x00, 0x00, 0x00,
  0x02, 0x00, 0x00, 0x00, 0x3e, 0xfe, 0xff, 0xff, 0x1c, 0x00, 0x00, 0x00,
  0x00, 0x00, 0x00, 0x08, 0x1c, 0x00, 0x00, 0x00, 0x20, 0x00, 0x00, 0x00,
  0x04, 0x00, 0x00, 0x00, 0x00, 0x00, 0x06, 0x00, 0x08, 0x00, 0x07, 0x00,
  0x06, 0x00, 0x00, 0x00, 0x00, 0x00, 0x00, 0x01, 0x01, 0x00, 0x00, 0x00,
  0x14, 0x00, 0x00, 0x00, 0x03, 0x00, 0x00, 0x00, 0x13, 0x00, 0x00, 0x00,
  0x05, 0x00, 0x00, 0x00, 0x04, 0x00, 0x00, 0x00, 0x7e, 0xfe, 0xff, 0xff,
  0x14, 0x00, 0x00, 0x00, 0x00, 0x00, 0x00, 0x1b, 0x10, 0x00, 0x00, 0x00,
  0x14, 0x00, 0x00, 0x00, 0x03, 0x00, 0x00, 0x00, 0xc8, 0xea, 0xff, 0xff,
  0x01, 0x00, 0x00, 0x00, 0x13, 0x00, 0x00, 0x00, 0x02, 0x00, 0x00, 0x00,
  0x12, 0x00, 0x00, 0x00, 0x01, 0x00, 0x00, 0x00, 0xae, 0xfe, 0xff, 0xff,
  0x14, 0x00, 0x00, 0x00, 0x00, 0x00, 0x00, 0x05, 0x24, 0x00, 0x00, 0x00,
  0x28, 0x00, 0x00, 0x00, 0x02, 0x00, 0x00, 0x00, 0xfe, 0xfe, 0xff, 0xff,
  0x02, 0x00, 0x00, 0x00, 0x02, 0x00, 0x00, 0x00, 0x02, 0x00, 0x00, 0x00,
  0x02, 0x00, 0x00, 0x00, 0x00, 0x00, 0x00, 0x01, 0x01, 0x00, 0x00, 0x00,
  0x12, 0x00, 0x00, 0x00, 0x01, 0x00, 0x00, 0x00, 0x11, 0x00, 0x00, 0x00,
  0xee, 0xfe, 0xff, 0xff, 0x14, 0x00, 0x00, 0x00, 0x00, 0x00, 0x00, 0x01,
  0x1c, 0x00, 0x00, 0x00, 0x20, 0x00, 0x00, 0x00, 0x01, 0x00, 0x00, 0x00,
  0xe0, 0xfe, 0xff, 0xff, 0x00, 0x00, 0x00, 0x01, 0x01, 0x00, 0x00, 0x00,
  0x01, 0x00, 0x00, 0x00, 0x01, 0x00, 0x00, 0x00, 0x11, 0x00, 0x00, 0x00,
  0x03, 0x00, 0x00, 0x00, 0x10, 0x00, 0x00, 0x00, 0x07, 0x00, 0x00, 0x00,
  0x06, 0x00, 0x00, 0x00, 0x2e, 0xff, 0xff, 0xff, 0x14, 0x00, 0x00, 0x00,
  0x00, 0x00, 0x00, 0x05, 0x24, 0x00, 0x00, 0x00, 0x28, 0x00, 0x00, 0x00,
  0x02, 0x00, 0x00, 0x00, 0x7e, 0xff, 0xff, 0xff, 0x02, 0x00, 0x00, 0x00,
  0x02, 0x00, 0x00, 0x00, 0x02, 0x00, 0x00, 0x00, 0x02, 0x00, 0x00, 0x00,
  0x00, 0x00, 0x00, 0x01, 0x01, 0x00, 0x00, 0x00, 0x10, 0x00, 0x00, 0x00,
  0x01, 0x00, 0x00, 0x00, 0x0f, 0x00, 0x00, 0x00, 0x6e, 0xff, 0xff, 0xff,
  0x14, 0x00, 0x00, 0x00, 0x00, 0x00, 0x00, 0x01, 0x1c, 0x00, 0x00, 0x00,
  0x20, 0x00, 0x00, 0x00, 0x01, 0x00, 0x00, 0x00, 0x60, 0xff, 0xff, 0xff,
  0x00, 0x00, 0x00, 0x01, 0x01, 0x00, 0x00, 0x00, 0x01, 0x00, 0x00, 0x00,
  0x01, 0x00, 0x00, 0x00, 0x0f, 0x00, 0x00, 0x00, 0x03, 0x00, 0x00, 0x00,
  0x0e, 0x00, 0x00, 0x00, 0x09, 0x00, 0x00, 0x00, 0x08, 0x00, 0x00, 0x00,
  0xae, 0xff, 0xff, 0xff, 0x24, 0x00, 0x00, 0x00, 0x00, 0x00, 0x00, 0x05,
  0x34, 0x00, 0x00, 0x00, 0x38, 0x00, 0x00, 0x00, 0x02, 0x00, 0x00, 0x00,
  0x00, 0x00, 0x0e, 0x00, 0x18, 0x00, 0x17, 0x00, 0x10, 0x00, 0x0c, 0x00,
  0x08, 0x00, 0x04, 0x00, 0x0e, 0x00, 0x00, 0x00, 0x02, 0x00, 0x00, 0x00,
  0x02, 0x00, 0x00, 0x00, 0x02, 0x00, 0x00, 0x00, 0x02, 0x00, 0x00, 0x00,
  0x00, 0x00, 0x00, 0x01, 0x01, 0x00, 0x00, 0x00, 0x0e, 0x00, 0x00, 0x00,
  0x01, 0x00, 0x00, 0x00, 0x0d, 0x00, 0x00, 0x00, 0x00, 0x00, 0x0e, 0x00,
  0x18, 0x00, 0x14, 0x00, 0x10, 0x00, 0x0c, 0x00, 0x0b, 0x00, 0x04, 0x00,
  0x0e, 0x00, 0x00, 0x00, 0x20, 0x00, 0x00, 0x00, 0x00, 0x00, 0x00, 0x01,
  0x28, 0x00, 0x00, 0x00, 0x2c, 0x00, 0x00, 0x00, 0x01, 0x00, 0x00, 0x00,
  0x0c, 0x00, 0x10, 0x00, 0x00, 0x00, 0x0c, 0x00, 0x08, 0x00, 0x07, 0x00,
  0x0c, 0x00, 0x00, 0x00, 0x00, 0x00, 0x00, 0x01, 0x01, 0x00, 0x00, 0x00,
  0x01, 0x00, 0x00, 0x00, 0x01, 0x00, 0x00, 0x00, 0x0d, 0x00, 0x00, 0x00,
  0x03, 0x00, 0x00, 0x00, 0x0c, 0x00, 0x00, 0x00, 0x0b, 0x00, 0x00, 0x00,
  0x0a, 0x00, 0x00, 0x00, 0x00, 0x00, 0x0a, 0x00, 0x0c, 0x00, 0x00, 0x00,
  0x08, 0x00, 0x04, 0x00, 0x0a, 0x00, 0x00, 0x00, 0x08, 0x00, 0x00, 0x00,
  0x0c, 0x00, 0x00, 0x00, 0x01, 0x00, 0x00, 0x00, 0x0c, 0x00, 0x00, 0x00,
  0x01, 0x00, 0x00, 0x00, 0x00, 0x00, 0x00, 0x00, 0x01, 0x00, 0x00, 0x00,
  0x17, 0x00, 0x00, 0x00, 0x01, 0x00, 0x00, 0x00, 0x00, 0x00, 0x00, 0x00,
  0x18, 0x00, 0x00, 0x00, 0x08, 0x13, 0x00, 0x00, 0xb0, 0x12, 0x00, 0x00,
  0x1c, 0x12, 0x00, 0x00, 0xac, 0x11, 0x00, 0x00, 0xd8, 0x0f, 0x00, 0x00,
  0xfc, 0x0d, 0x00, 0x00, 0xe8, 0x0c, 0x00, 0x00, 0xc4, 0x0b, 0x00, 0x00,
  0xb0, 0x0a, 0x00, 0x00, 0x8c, 0x09, 0x00, 0x00, 0xd8, 0x08, 0x00, 0x00,
  0x14, 0x08, 0x00, 0x00, 0x90, 0x07, 0x00, 0x00, 0x8c, 0x06, 0x00, 0x00,
  0xf0, 0x05, 0x00, 0x00, 0xfc, 0x04, 0x00, 0x00, 0x60, 0x04, 0x00, 0x00,
  0x6c, 0x03, 0x00, 0x00, 0xd0, 0x02, 0x00, 0x00, 0x3c, 0x02, 0x00, 0x00,
  0x88, 0x01, 0x00, 0x00, 0xe4, 0x00, 0x00, 0x00, 0x60, 0x00, 0x00, 0x00,
  0x04, 0x00, 0x00, 0x00, 0x6e, 0xed, 0xff, 0xff, 0x00, 0x00, 0x00, 0x01,
  0x14, 0x00, 0x00, 0x00, 0x1c, 0x00, 0x00, 0x00, 0x1c, 0x00, 0x00, 0x00,
  0x18, 0x00, 0x00, 0x00, 0x34, 0x00, 0x00, 0x00, 0x02, 0x00, 0x00, 0x00,
  0xff, 0xff, 0xff, 0xff, 0x02, 0x00, 0x00, 0x00, 0x50, 0xed, 0xff, 0xff,
  0x1b, 0x00, 0x00, 0x00, 0x53, 0x74, 0x61, 0x74, 0x65, 0x66, 0x75, 0x6c,
  0x50, 0x61, 0x72, 0x74, 0x69, 0x74, 0x69, 0x6f, 0x6e, 0x65, 0x64, 0x43,
  0x61, 0x6c, 0x6c, 0x5f, 0x31, 0x3a, 0x30, 0x00, 0x02, 0x00, 0x00, 0x00,
  0x01, 0x00, 0x00, 0x00, 0x02, 0x00, 0x00, 0x00, 0x0e, 0xf9, 0xff, 0xff,
  0x00, 0x00, 0x00, 0x01, 0x18, 0x00, 0x00, 0x00, 0x20, 0x00, 0x00, 0x00,
  0x40, 0x00, 0x00, 0x00, 0x17, 0x00, 0x00, 0x00, 0x00, 0x00, 0x00, 0x09,
  0x58, 0x00, 0x00, 0x00, 0x02, 0x00, 0x00, 0x00, 0xff, 0xff, 0xff, 0xff,
  0x02, 0x00, 0x00, 0x00, 0xa4, 0xee, 0xff, 0xff, 0x08, 0x00, 0x00, 0x00,
  0x14, 0x00, 0x00, 0x00, 0x01, 0x00, 0x00, 0x00, 0x80, 0xff, 0xff, 0xff,
  0xff, 0xff, 0xff, 0xff, 0x00, 0x00, 0x00, 0x00, 0x01, 0x00, 0x00, 0x00,
  0x00, 0x00, 0x80, 0x3b, 0x1c, 0x00, 0x00, 0x00, 0x53, 0x74, 0x61, 0x74,
  0x65, 0x66, 0x75, 0x6c, 0x50, 0x61, 0x72, 0x74, 0x69, 0x74, 0x69, 0x6f,
  0x6e, 0x65, 0x64, 0x43, 0x61, 0x6c, 0x6c, 0x5f, 0x31, 0x3a, 0x30, 0x31,
  0x00, 0x00, 0x00, 0x00, 0x02, 0x00, 0x00, 0x00, 0x01, 0x00, 0x00, 0x00,
  0x02, 0x00, 0x00, 0x00, 0x8e, 0xf9, 0xff, 0xff, 0x00, 0x00, 0x00, 0x01,
  0x18, 0x00, 0x00, 0x00, 0x20, 0x00, 0x00, 0x00, 0x40, 0x00, 0x00, 0x00,
  0x16, 0x00, 0x00, 0x00, 0x00, 0x00, 0x00, 0x09, 0x78, 0x00, 0x00, 0x00,
  0x02, 0x00, 0x00, 0x00, 0xff, 0xff, 0xff, 0xff, 0x02, 0x00, 0x00, 0x00,
  0x24, 0xef, 0xff, 0xff, 0x08, 0x00, 0x00, 0x00, 0x14, 0x00, 0x00, 0x00,
  0x01, 0x00, 0x00, 0x00, 0x2b, 0x00, 0x00, 0x00, 0x00, 0x00, 0x00, 0x00,
  0x00, 0x00, 0x00, 0x00, 0x01, 0x00, 0x00, 0x00, 0x71, 0x3e, 0xd4, 0x3c,
  0x3c, 0x00, 0x00, 0x00, 0x66, 0x75, 0x6e, 0x63, 0x74, 0x69, 0x6f, 0x6e,
  0x61, 0x6c, 0x5f, 0x31, 0x2f, 0x64, 0x65, 0x6e, 0x73, 0x65, 0x5f, 0x31,
  0x5f, 0x32, 0x2f, 0x4d, 0x61, 0x74, 0x4d, 0x75, 0x6c, 0x3b, 0x66, 0x75,
  0x6e, 0x63, 0x74, 0x69, 0x6f, 0x6e, 0x61, 0x6c, 0x5f, 0x31, 0x2f, 0x64,
  0x65, 0x6e, 0x73, 0x65, 0x5f, 0x31, 0x5f, 0x32, 0x2f, 0x42, 0x69, 0x61,
  0x73, 0x41, 0x64, 0x64, 0x00, 0x00, 0x00, 0x00, 0x02, 0x00, 0x00, 0x00,
  0x01, 0x00, 0x00, 0x00, 0x02, 0x00, 0x00, 0x00, 0x2e, 0xfa, 0xff, 0xff,
  0x00, 0x00, 0x00, 0x01, 0x18, 0x00, 0x00, 0x00, 0x20, 0x00, 0x00, 0x00,
  0x3c, 0x00, 0x00, 0x00, 0x15, 0x00, 0x00, 0x00, 0x00, 0x00, 0x00, 0x09,
  0x88, 0x00, 0x00, 0x00, 0x02, 0x00, 0x00, 0x00, 0xff, 0xff, 0xff, 0xff,
  0x20, 0x00, 0x00, 0x00, 0xc4, 0xef, 0xff, 0xff, 0x08, 0x00, 0x00, 0x00,
  0x10, 0x00, 0x00, 0x00, 0x01, 0x00, 0x00, 0x00, 0x80, 0xff, 0xff, 0xff,
  0xff, 0xff, 0xff, 0xff, 0x01, 0x00, 0x00, 0x00, 0x3c, 0x9c, 0xd5, 0x3b,
  0x52, 0x00, 0x00, 0x00, 0x66, 0x75, 0x6e, 0x63, 0x74, 0x69, 0x6f, 0x6e,
  0x61, 0x6c, 0x5f, 0x31, 0x2f, 0x64, 0x65, 0x6e, 0x73, 0x65, 0x5f, 0x31,
  0x2f, 0x4d, 0x61, 0x74, 0x4d, 0x75, 0x6c, 0x3b, 0x66, 0x75, 0x6e, 0x63,
  0x74, 0x69, 0x6f, 0x6e, 0x61, 0x6c, 0x5f, 0x31, 0x2f, 0x64, 0x65, 0x6e,
  0x73, 0x65, 0x5f, 0x31, 0x2f, 0x52, 0x65, 0x6c, 0x75, 0x3b, 0x66, 0x75,
  0x6e, 0x63, 0x74, 0x69, 0x6f, 0x6e, 0x61, 0x6c, 0x5f, 0x31, 0x2f, 0x64,
  0x65, 0x6e, 0x73, 0x65, 0x5f, 0x31, 0x2f, 0x42, 0x69, 0x61, 0x73, 0x41,
  0x64, 0x64, 0x00, 0x00, 0x02, 0x00, 0x00, 0x00, 0x01, 0x00, 0x00, 0x00,
  0x20, 0x00, 0x00, 0x00, 0xde, 0xfa, 0xff, 0xff, 0x00, 0x00, 0x00, 0x01,
  0x18, 0x00, 0x00, 0x00, 0x20, 0x00, 0x00, 0x00, 0x40, 0x00, 0x00, 0x00,
  0x14, 0x00, 0x00, 0x00, 0x00, 0x00, 0x00, 0x09, 0x68, 0x00, 0x00, 0x00,
  0x02, 0x00, 0x00, 0x00, 0xff, 0xff, 0xff, 0xff, 0x10, 0x00, 0x00, 0x00,
  0x74, 0xf0, 0xff, 0xff, 0x08, 0x00, 0x00, 0x00, 0x14, 0x00, 0x00, 0x00,
  0x01, 0x00, 0x00, 0x00, 0x80, 0xff, 0xff, 0xff, 0xff, 0xff, 0xff, 0xff,
  0x00, 0x00, 0x00, 0x00, 0x01, 0x00, 0x00, 0x00, 0x2a, 0x45, 0x72, 0x3b,
  0x2c, 0x00, 0x00, 0x00, 0x66, 0x75, 0x6e, 0x63, 0x74, 0x69, 0x6f, 0x6e,
  0x61, 0x6c, 0x5f, 0x31, 0x2f, 0x67, 0x6c, 0x6f, 0x62, 0x61, 0x6c, 0x5f,
  0x61, 0x76, 0x65, 0x72, 0x61, 0x67, 0x65, 0x5f, 0x70, 0x6f, 0x6f, 0x6c,
  0x69, 0x6e, 0x67, 0x32, 0x64, 0x5f, 0x31, 0x2f, 0x4d, 0x65, 0x61, 0x6e,
  0x00, 0x00, 0x00, 0x00, 0x02, 0x00, 0x00, 0x00, 0x01, 0x00, 0x00, 0x00,
  0x10, 0x00, 0x00, 0x00, 0x6e, 0xfb, 0xff, 0xff, 0x00, 0x00, 0x00, 0x01,
  0x18, 0x00, 0x00, 0x00, 0x28, 0x00, 0x00, 0x00, 0x44, 0x00, 0x00, 0x00,
  0x13, 0x00, 0x00, 0x00, 0x00, 0x00, 0x00, 0x09, 0x68, 0x00, 0x00, 0x00,
  0x04, 0x00, 0x00, 0x00, 0xff, 0xff, 0xff, 0xff, 0x0c, 0x00, 0x00, 0x00,
  0x0c, 0x00, 0x00, 0x00, 0x10, 0x00, 0x00, 0x00, 0x0c, 0xf1, 0xff, 0xff,
  0x08, 0x00, 0x00, 0x00, 0x10, 0x00, 0x00, 0x00, 0x01, 0x00, 0x00, 0x00,
  0x80, 0xff, 0xff, 0xff, 0xff, 0xff, 0xff, 0xff, 0x01, 0x00, 0x00, 0x00,
  0x41, 0xcf, 0xdc, 0x3b, 0x28, 0x00, 0x00, 0x00, 0x66, 0x75, 0x6e, 0x63,
  0x74, 0x69, 0x6f, 0x6e, 0x61, 0x6c, 0x5f, 0x31, 0x2f, 0x6d, 0x61, 0x78,
  0x5f, 0x70, 0x6f, 0x6f, 0x6c, 0x69, 0x6e, 0x67, 0x32, 0x64, 0x5f, 0x32,
  0x5f, 0x31, 0x2f, 0x4d, 0x61, 0x78, 0x50, 0x6f, 0x6f, 0x6c, 0x32, 0x64,
  0x00, 0x00, 0x00, 0x00, 0x04, 0x00, 0x00, 0x00, 0x01, 0x00, 0x00, 0x00,
  0x0c, 0x00, 0x00, 0x00, 0x0c, 0x00, 0x00, 0x00, 0x10, 0x00, 0x00, 0x00,
  0x06, 0xfc, 0xff, 0xff, 0x00, 0x00, 0x00, 0x01, 0x18, 0x00, 0x00, 0x00,
  0x28, 0x00, 0x00, 0x00, 0x44, 0x00, 0x00, 0x00, 0x12, 0x00, 0x00, 0x00,
  0x00, 0x00, 0x00, 0x09, 0xc0, 0x00, 0x00, 0x00, 0x04, 0x00, 0x00, 0x00,
  0xff, 0xff, 0xff, 0xff, 0x18, 0x00, 0x00, 0x00, 0x18, 0x00, 0x00, 0x00,
  0x10, 0x00, 0x00, 0x00, 0xa4, 0xf1, 0xff, 0xff, 0x08, 0x00, 0x00, 0x00,
  0x10, 0x00, 0x00, 0x00, 0x01, 0x00, 0x00, 0x00, 0x80, 0xff, 0xff, 0xff,
  0xff, 0xff, 0xff, 0xff, 0x01, 0x00, 0x00, 0x00, 0x41, 0xcf, 0xdc, 0x3b,
  0x80, 0x00, 0x00, 0x00, 0x66, 0x75, 0x6e, 0x63, 0x74, 0x69, 0x6f, 0x6e,
  0x61, 0x6c, 0x5f, 0x31, 0x2f, 0x63, 0x6f, 0x6e, 0x76, 0x32, 0x64, 0x5f,
  0x32, 0x5f, 0x31, 0x2f, 0x52, 0x65, 0x6c, 0x75, 0x3b, 0x66, 0x75, 0x6e,
  0x63, 0x74, 0x69, 0x6f, 0x6e, 0x61, 0x6c, 0x5f, 0x31, 0x2f, 0x63, 0x6f,
  0x6e, 0x76, 0x32, 0x64, 0x5f, 0x32, 0x5f, 0x31, 0x2f, 0x42, 0x69, 0x61,
  0x73, 0x41, 0x64, 0x64, 0x3b, 0x66, 0x75, 0x6e, 0x63, 0x74, 0x69, 0x6f,
  0x6e, 0x61, 0x6c, 0x5f, 0x31, 0x2f, 0x63, 0x6f, 0x6e, 0x76, 0x32, 0x64,
  0x5f, 0x32, 0x5f, 0x31, 0x2f, 0x63, 0x6f, 0x6e, 0x76, 0x6f, 0x6c, 0x75,
  0x74, 0x69, 0x6f, 0x6e, 0x3b, 0x66, 0x75, 0x6e, 0x63, 0x74, 0x69, 0x6f,
  0x6e, 0x61, 0x6c, 0x5f, 0x31, 0x2f, 0x63, 0x6f, 0x6e, 0x76, 0x32, 0x64,
  0x5f, 0x32, 0x5f, 0x31, 0x2f, 0x53, 0x71, 0x75, 0x65, 0x65, 0x7a, 0x65,
  0x00, 0x00, 0x00, 0x00, 0x04, 0x00, 0x00, 0x00, 0x01, 0x00, 0x00, 0x00,
  0x18, 0x00, 0x00, 0x00, 0x18, 0x00, 0x00, 0x00, 0x10, 0x00, 0x00, 0x00,
  0xf6, 0xfc, 0xff, 0xff, 0x00, 0x00, 0x00, 0x01, 0x18, 0x00, 0x00, 0x00,
  0x28, 0x00, 0x00, 0x00, 0x44, 0x00, 0x00, 0x00, 0x11, 0x00, 0x00, 0x00,
  0x00, 0x00, 0x00, 0x09, 0x68, 0x00, 0x00, 0x00, 0x04, 0x00, 0x00, 0x00,
  0xff, 0xff, 0xff, 0xff, 0x18, 0x00, 0x00, 0x00, 0x18, 0x00, 0x00, 0x00,
  0x10, 0x00, 0x00, 0x00, 0x94, 0xf2, 0xff, 0xff, 0x08, 0x00, 0x00, 0x00,
  0x10, 0x00, 0x00, 0x00, 0x01, 0x00, 0x00, 0x00, 0x80, 0xff, 0xff, 0xff,
  0xff, 0xff, 0xff, 0xff, 0x01, 0x00, 0x00, 0x00, 0x6c, 0xb5, 0x3b, 0x3b,
  0x28, 0x00, 0x00, 0x00, 0x66, 0x75, 0x6e, 0x63, 0x74, 0x69, 0x6f, 0x6e,
  0x61, 0x6c, 0x5f, 0x31, 0x2f, 0x6d, 0x61, 0x78, 0x5f, 0x70, 0x6f, 0x6f,
  0x6c, 0x69, 0x6e, 0x67, 0x32, 0x64, 0x5f, 0x31, 0x5f, 0x32, 0x2f, 0x4d,
  0x61, 0x78, 0x50, 0x6f, 0x6f, 0x6c, 0x32, 0x64, 0x00, 0x00, 0x00, 0x00,
  0x04, 0x00, 0x00, 0x00, 0x01, 0x00, 0x00, 0x00, 0x18, 0x00, 0x00, 0x00,
  0x18, 0x00, 0x00, 0x00, 0x10, 0x00, 0x00, 0x00, 0x8e, 0xfd, 0xff, 0xff,
  0x00, 0x00, 0x00, 0x01, 0x18, 0x00, 0x00, 0x00, 0x28, 0x00, 0x00, 0x00,
  0x44, 0x00, 0x00, 0x00, 0x10, 0x00, 0x00, 0x00, 0x00, 0x00, 0x00, 0x09,
  0xc0, 0x00, 0x00, 0x00, 0x04, 0x00, 0x00, 0x00, 0xff, 0xff, 0xff, 0xff,
  0x30, 0x00, 0x00, 0x00, 0x30, 0x00, 0x00, 0x00, 0x10, 0x00, 0x00, 0x00,
  0x2c, 0xf3, 0xff, 0xff, 0x08, 0x00, 0x00, 0x00, 0x10, 0x00, 0x00, 0x00,
  0x01, 0x00, 0x00, 0x00, 0x80, 0xff, 0xff, 0xff, 0xff, 0xff, 0xff, 0xff,
  0x01, 0x00, 0x00, 0x00, 0x6c, 0xb5, 0x3b, 0x3b, 0x80, 0x00, 0x00, 0x00,
  0x66, 0x75, 0x6e, 0x63, 0x74, 0x69, 0x6f, 0x6e, 0x61, 0x6c, 0x5f, 0x31,
  0x2f, 0x63, 0x6f, 0x6e, 0x76, 0x32, 0x64, 0x5f, 0x31, 0x5f, 0x32, 0x2f,
  0x52, 0x65, 0x6c, 0x75, 0x3b, 0x66, 0x75, 0x6e, 0x63, 0x74, 0x69, 0x6f,
  0x6e, 0x61, 0x6c, 0x5f, 0x31, 0x2f, 0x63, 0x6f, 0x6e, 0x76, 0x32, 0x64,
  0x5f, 0x31, 0x5f, 0x32, 0x2f, 0x42, 0x69, 0x61, 0x73, 0x41, 0x64, 0x64,
  0x3b, 0x66, 0x75, 0x6e, 0x63, 0x74, 0x69, 0x6f, 0x6e, 0x61, 0x6c, 0x5f,
  0x31, 0x2f, 0x63, 0x6f, 0x6e, 0x76, 0x32, 0x64, 0x5f, 0x31, 0x5f, 0x32,
  0x2f, 0x63, 0x6f, 0x6e, 0x76, 0x6f, 0x6c, 0x75, 0x74, 0x69, 0x6f, 0x6e,
  0x3b, 0x66, 0x75, 0x6e, 0x63, 0x74, 0x69, 0x6f, 0x6e, 0x61, 0x6c, 0x5f,
  0x31, 0x2f, 0x63, 0x6f, 0x6e, 0x76, 0x32, 0x64, 0x5f, 0x31, 0x5f, 0x32,
  0x2f, 0x53, 0x71, 0x75, 0x65, 0x65, 0x7a, 0x65, 0x00, 0x00, 0x00, 0x00,
  0x04, 0x00, 0x00, 0x00, 0x01, 0x00, 0x00, 0x00, 0x30, 0x00, 0x00, 0x00,
  0x30, 0x00, 0x00, 0x00, 0x10, 0x00, 0x00, 0x00, 0x7e, 0xfe, 0xff, 0xff,
  0x00, 0x00, 0x00, 0x01, 0x18, 0x00, 0x00, 0x00, 0x28, 0x00, 0x00, 0x00,
  0x48, 0x00, 0x00, 0x00, 0x0f, 0x00, 0x00, 0x00, 0x00, 0x00, 0x00, 0x09,
  0x68, 0x00, 0x00, 0x00, 0x04, 0x00, 0x00, 0x00, 0xff, 0xff, 0xff, 0xff,
  0x30, 0x00, 0x00, 0x00, 0x30, 0x00, 0x00, 0x00, 0x08, 0x00, 0x00, 0x00,
  0x1c, 0xf4, 0xff, 0xff, 0x08, 0x00, 0x00, 0x00, 0x14, 0x00, 0x00, 0x00,
  0x01, 0x00, 0x00, 0x00, 0x80, 0xff, 0xff, 0xff, 0xff, 0xff, 0xff, 0xff,
  0x00, 0x00, 0x00, 0x00, 0x01, 0x00, 0x00, 0x00, 0x59, 0xbd, 0xa2, 0x3b,
  0x26, 0x00, 0x00, 0x00, 0x66, 0x75, 0x6e, 0x63, 0x74, 0x69, 0x6f, 0x6e,
  0x61, 0x6c, 0x5f, 0x31, 0x2f, 0x6d, 0x61, 0x78, 0x5f, 0x70, 0x6f, 0x6f,
  0x6c, 0x69, 0x6e, 0x67, 0x32, 0x64, 0x5f, 0x31, 0x2f, 0x4d, 0x61, 0x78,
  0x50, 0x6f, 0x6f, 0x6c, 0x32, 0x64, 0x00, 0x00, 0x04, 0x00, 0x00, 0x00,
  0x01, 0x00, 0x00, 0x00, 0x30, 0x00, 0x00, 0x00, 0x30, 0x00, 0x00, 0x00,
  0x08, 0x00, 0x00, 0x00, 0x16, 0xff, 0xff, 0xff, 0x00, 0x00, 0x00, 0x01,
  0x18, 0x00, 0x00, 0x00, 0x28, 0x00, 0x00, 0x00, 0x44, 0x00, 0x00, 0x00,
  0x0e, 0x00, 0x00, 0x00, 0x00, 0x00, 0x00, 0x09, 0xb8, 0x00, 0x00, 0x00,
  0x04, 0x00, 0x00, 0x00, 0xff, 0xff, 0xff, 0xff, 0x60, 0x00, 0x00, 0x00,
  0x60, 0x00, 0x00, 0x00, 0x08, 0x00, 0x00, 0x00, 0xb4, 0xf4, 0xff, 0xff,
  0x08, 0x00, 0x00, 0x00, 0x10, 0x00, 0x00, 0x00, 0x01, 0x00, 0x00, 0x00,
  0x80, 0xff, 0xff, 0xff, 0xff, 0xff, 0xff, 0xff, 0x01, 0x00, 0x00, 0x00,
  0x59, 0xbd, 0xa2, 0x3b, 0x79, 0x00, 0x00, 0x00, 0x66, 0x75, 0x6e, 0x63,
  0x74, 0x69, 0x6f, 0x6e, 0x61, 0x6c, 0x5f, 0x31, 0x2f, 0x63, 0x6f, 0x6e,
  0x76, 0x32, 0x64, 0x5f, 0x31, 0x2f, 0x52, 0x65, 0x6c, 0x75, 0x3b, 0x66,
  0x75, 0x6e, 0x63, 0x74, 0x69, 0x6f, 0x6e, 0x61, 0x6c, 0x5f, 0x31, 0x2f,
  0x63, 0x6f, 0x6e, 0x76, 0x32, 0x64, 0x5f, 0x31, 0x2f, 0x42, 0x69, 0x61,
  0x73, 0x41, 0x64, 0x64, 0x3b, 0x66, 0x75, 0x6e, 0x63, 0x74, 0x69, 0x6f,
  0x6e, 0x61, 0x6c, 0x5f, 0x31, 0x2f, 0x63, 0x6f, 0x6e, 0x76, 0x32, 0x64,
  0x5f, 0x31, 0x2f, 0x63, 0x6f, 0x6e, 0x76, 0x6f, 0x6c, 0x75, 0x74, 0x69,
  0x6f, 0x6e, 0x3b, 0x66, 0x75, 0x6e, 0x63, 0x74, 0x69, 0x6f, 0x6e, 0x61,
  0x6c, 0x5f, 0x31, 0x2f, 0x63, 0x6f, 0x6e, 0x76, 0x32, 0x64, 0x5f, 0x31,
  0x2f, 0x53, 0x71, 0x75, 0x65, 0x65, 0x7a, 0x65, 0x31, 0x00, 0x00, 0x00,
  0x04, 0x00, 0x00, 0x00, 0x01, 0x00, 0x00, 0x00, 0x60, 0x00, 0x00, 0x00,
  0x60, 0x00, 0x00, 0x00, 0x08, 0x00, 0x00, 0x00, 0x00, 0x00, 0x16, 0x00,
  0x20, 0x00, 0x1c, 0x00, 0x1b, 0x00, 0x14, 0x00, 0x10, 0x00, 0x0c, 0x00,
  0x00, 0x00, 0x00, 0x00, 0x08, 0x00, 0x07, 0x00, 0x16, 0x00, 0x00, 0x00,
  0x00, 0x00, 0x00, 0x01, 0x18, 0x00, 0x00, 0x00, 0x28, 0x00, 0x00, 0x00,
  0x48, 0x00, 0x00, 0x00, 0x0d, 0x00, 0x00, 0x00, 0x00, 0x00, 0x00, 0x09,
  0x50, 0x00, 0x00, 0x00, 0x04, 0x00, 0x00, 0x00, 0xff, 0xff, 0xff, 0xff,
  0x60, 0x00, 0x00, 0x00, 0x60, 0x00, 0x00, 0x00, 0x01, 0x00, 0x00, 0x00,
  0xb4, 0xf5, 0xff, 0xff, 0x08, 0x00, 0x00, 0x00, 0x14, 0x00, 0x00, 0x00,
  0x01, 0x00, 0x00, 0x00, 0x80, 0xff, 0xff, 0xff, 0xff, 0xff, 0xff, 0xff,
  0x00, 0x00, 0x00, 0x00, 0x01, 0x00, 0x00, 0x00, 0x76, 0x80, 0x80, 0x3b,
  0x0c, 0x00, 0x00, 0x00, 0x74, 0x66, 0x6c, 0x2e, 0x71, 0x75, 0x61, 0x6e,
  0x74, 0x69, 0x7a, 0x65, 0x00, 0x00, 0x00, 0x00, 0x04, 0x00, 0x00, 0x00,
  0x01, 0x00, 0x00, 0x00, 0x60, 0x00, 0x00, 0x00, 0x60, 0x00, 0x00, 0x00,
  0x01, 0x00, 0x00, 0x00, 0xa2, 0xf5, 0xff, 0xff, 0x00, 0x00, 0x00, 0x01,
  0x14, 0x00, 0x00, 0x00, 0x88, 0x00, 0x00, 0x00, 0x0c, 0x00, 0x00, 0x00,
  0x00, 0x00, 0x00, 0x09, 0x94, 0x00, 0x00, 0x00, 0x1c, 0xf6, 0xff, 0xff,
  0x08, 0x00, 0x00, 0x00, 0x4c, 0x00, 0x00, 0x00, 0x08, 0x00, 0x00, 0x00,
  0x00, 0x00, 0x00, 0x00, 0x00, 0x00, 0x00, 0x00, 0x00, 0x00, 0x00, 0x00,
  0x00, 0x00, 0x00, 0x00, 0x00, 0x00, 0x00, 0x00, 0x00, 0x00, 0x00, 0x00,
  0x00, 0x00, 0x00, 0x00, 0x00, 0x00, 0x00, 0x00, 0x00, 0x00, 0x00, 0x00,
  0x00, 0x00, 0x00, 0x00, 0x00, 0x00, 0x00, 0x00, 0x00, 0x00, 0x00, 0x00,
  0x00, 0x00, 0x00, 0x00, 0x00, 0x00, 0x00, 0x00, 0x00, 0x00, 0x00, 0x00,
  0x00, 0x00, 0x00, 0x00, 0x00, 0x00, 0x00, 0x00, 0x08, 0x00, 0x00, 0x00,
  0x0b, 0x57, 0x0c, 0x3b, 0xc6, 0x3e, 0x04, 0x3b, 0x2b, 0x18, 0xb0, 0x3a,
  0x8b, 0xe3, 0x39, 0x3b, 0x44, 0xa5, 0x18, 0x3b, 0xcf, 0xb4, 0x9c, 0x3a,
  0x77, 0xd4, 0xdd, 0x3a, 0xab, 0xaa, 0x2c, 0x3b, 0x12, 0x00, 0x00, 0x00,
  0x74, 0x66, 0x6c, 0x2e, 0x70, 0x73, 0x65, 0x75, 0x64, 0x6f, 0x5f, 0x71,
  0x63, 0x6f, 0x6e, 0x73, 0x74, 0x39, 0x00, 0x00, 0x04, 0x00, 0x00, 0x00,
  0x08, 0x00, 0x00, 0x00, 0x03, 0x00, 0x00, 0x00, 0x03, 0x00, 0x00, 0x00,
  0x01, 0x00, 0x00, 0x00, 0x62, 0xf6, 0xff, 0xff, 0x00, 0x00, 0x00, 0x01,
  0x14, 0x00, 0x00, 0x00, 0x84, 0x00, 0x00, 0x00, 0x0b, 0x00, 0x00, 0x00,
  0x00, 0x00, 0x00, 0x02, 0x90, 0x00, 0x00, 0x00, 0xdc, 0xf6, 0xff, 0xff,
  0x08, 0x00, 0x00, 0x00, 0x48, 0x00, 0x00, 0x00, 0x08, 0x00, 0x00, 0x00,
  0x00, 0x00, 0x00, 0x00, 0x00, 0x00, 0x00, 0x00, 0x00, 0x00, 0x00, 0x00,
  0x00, 0x00, 0x00, 0x00, 0x00, 0x00, 0x00, 0x00, 0x00, 0x00, 0x00, 0x00,
  0x00, 0x00, 0x00, 0x00, 0x00, 0x00, 0x00, 0x00, 0x00, 0x00, 0x00, 0x00,
  0x00, 0x00, 0x00, 0x00, 0x00, 0x00, 0x00, 0x00, 0x00, 0x00, 0x00, 0x00,
  0x00, 0x00, 0x00, 0x00, 0x00, 0x00, 0x00, 0x00, 0x00, 0x00, 0x00, 0x00,
  0x00, 0x00, 0x00, 0x00, 0x08, 0x00, 0x00, 0x00, 0xe3, 0xe3, 0x0c, 0x37,
  0x7f, 0xc3, 0x04, 0x37, 0xe6, 0xc8, 0xb0, 0x36, 0x1a, 0x9e, 0x3a, 0x37,
  0x76, 0x3e, 0x19, 0x37, 0x14, 0x52, 0x9d, 0x36, 0x18, 0xb3, 0xde, 0x36,
  0xf5, 0x57, 0x2d, 0x37, 0x12, 0x00, 0x00, 0x00, 0x74, 0x66, 0x6c, 0x2e,
  0x70, 0x73, 0x65, 0x75, 0x64, 0x6f, 0x5f, 0x71, 0x63, 0x6f, 0x6e, 0x73,
  0x74, 0x38, 0x00, 0x00, 0x01, 0x00, 0x00, 0x00, 0x08, 0x00, 0x00, 0x00,
  0x12, 0xf7, 0xff, 0xff, 0x00, 0x00, 0x00, 0x01, 0x14, 0x00, 0x00, 0x00,
  0xe8, 0x00, 0x00, 0x00, 0x0a, 0x00, 0x00, 0x00, 0x00, 0x00, 0x00, 0x09,
  0xf4, 0x00, 0x00, 0x00, 0x8c, 0xf7, 0xff, 0xff, 0x08, 0x00, 0x00, 0x00,
  0x8c, 0x00, 0x00, 0x00, 0x10, 0x00, 0x00, 0x00, 0x00, 0x00, 0x00, 0x00,
  0x00, 0x00, 0x00, 0x00, 0x00, 0x00, 0x00, 0x00, 0x00, 0x00, 0x00, 0x00,
  0x00, 0x00, 0x00, 0x00, 0x00, 0x00, 0x00, 0x00, 0x00, 0x00, 0x00, 0x00,
  0x00, 0x00, 0x00, 0x00, 0x00, 0x00, 0x00, 0x00, 0x00, 0x00, 0x00, 0x00,
  0x00, 0x00, 0x00, 0x00, 0x00, 0x00, 0x00, 0x00, 0x00, 0x00, 0x00, 0x00,
  0x00, 0x00, 0x00, 0x00, 0x00, 0x00, 0x00, 0x00, 0x00, 0x00, 0x00, 0x00,
  0x00, 0x00, 0x00, 0x00, 0x00, 0x00, 0x00, 0x00, 0x00, 0x00, 0x00, 0x00,
  0x00, 0x00, 0x00, 0x00, 0x00, 0x00, 0x00, 0x00, 0x00, 0x00, 0x00, 0x00,
  0x00, 0x00, 0x00, 0x00, 0x00, 0x00, 0x00, 0x00, 0x00, 0x00, 0x00, 0x00,
  0x00, 0x00, 0x00, 0x00, 0x00, 0x00, 0x00, 0x00, 0x00, 0x00, 0x00, 0x00,
  0x00, 0x00, 0x00, 0x00, 0x00, 0x00, 0x00, 0x00, 0x00, 0x00, 0x00, 0x00,
  0x00, 0x00, 0x00, 0x00, 0x00, 0x00, 0x00, 0x00, 0x10, 0x00, 0x00, 0x00,
  0x00, 0xf9, 0xf1, 0x3a, 0xef, 0x81, 0xed, 0x3a, 0x50, 0xee, 0x33, 0x3b,
  0xef, 0xeb, 0x09, 0x3b, 0x54, 0x8f, 0x16, 0x3b, 0x55, 0x47, 0x04, 0x3b,
  0x2d, 0xd2, 0x02, 0x3b, 0x43, 0xcc, 0x2d, 0x3b, 0xaa, 0x55, 0xc7, 0x3a,
  0x54, 0x46, 0x25, 0x3b, 0x3c, 0x51, 0x2d, 0x3b, 0xa9, 0xc0, 0x13, 0x3b,
  0xc9, 0xe7, 0xfa, 0x3a, 0x23, 0xb6, 0x10, 0x3b, 0x6b, 0x7e, 0x12, 0x3b,
  0x3b, 0xe1, 0x0d, 0x3b, 0x12, 0x00, 0x00, 0x00, 0x74, 0x66, 0x6c, 0x2e,
  0x70, 0x73, 0x65, 0x75, 0x64, 0x6f, 0x5f, 0x71, 0x63, 0x6f, 0x6e, 0x73,
  0x74, 0x37, 0x00, 0x00, 0x04, 0x00, 0x00, 0x00, 0x10, 0x00, 0x00, 0x00,
  0x03, 0x00, 0x00, 0x00, 0x03, 0x00, 0x00, 0x00, 0x08, 0x00, 0x00, 0x00,
  0x32, 0xf8, 0xff, 0xff, 0x00, 0x00, 0x00, 0x01, 0x14, 0x00, 0x00, 0x00,
  0xe4, 0x00, 0x00, 0x00, 0x09, 0x00, 0x00, 0x00, 0x00, 0x00, 0x00, 0x02,
  0xf0, 0x00, 0x00, 0x00, 0xac, 0xf8, 0xff, 0xff, 0x08, 0x00, 0x00, 0x00,
  0x88, 0x00, 0x00, 0x00, 0x10, 0x00, 0x00, 0x00, 0x00, 0x00, 0x00, 0x00,
  0x00, 0x00, 0x00, 0x00, 0x00, 0x00, 0x00, 0x00, 0x00, 0x00, 0x00, 0x00,
  0x00, 0x00, 0x00, 0x00, 0x00, 0x00, 0x00, 0x00, 0x00, 0x00, 0x00, 0x00,
  0x00, 0x00, 0x00, 0x00, 0x00, 0x00, 0x00, 0x00, 0x00, 0x00, 0x00, 0x00,
  0x00, 0x00, 0x00, 0x00, 0x00, 0x00, 0x00, 0x00, 0x00, 0x00, 0x00, 0x00,
  0x00, 0x00, 0x00, 0x00, 0x00, 0x00, 0x00, 0x00, 0x00, 0x00, 0x00, 0x00,
  0x00, 0x00, 0x00, 0x00, 0x00, 0x00, 0x00, 0x00, 0x00, 0x00, 0x00, 0x00,
  0x00, 0x00, 0x00, 0x00, 0x00, 0x00, 0x00, 0x00, 0x00, 0x00, 0x00, 0x00,
  0x00, 0x00, 0x00, 0x00, 0x00, 0x00, 0x00, 0x00, 0x00, 0x00, 0x00, 0x00,
  0x00, 0x00, 0x00, 0x00, 0x00, 0x00, 0x00, 0x00, 0x00, 0x00, 0x00, 0x00,
  0x00, 0x00, 0x00, 0x00, 0x00, 0x00, 0x00, 0x00, 0x00, 0x00, 0x00, 0x00,
  0x00, 0x00, 0x00, 0x00, 0x10, 0x00, 0x00, 0x00, 0x8b, 0xd2, 0x19, 0x37,
  0xe5, 0xfb, 0x16, 0x37, 0xc8, 0xc3, 0x64, 0x37, 0xa1, 0x5a, 0x2f, 0x37,
  0x1f, 0x6c, 0x3f, 0x37, 0xf5, 0x2d, 0x28, 0x37, 0x86, 0x53, 0x26, 0x37,
  0x9d, 0xf7, 0x5c, 0x37, 0x4a, 0x6f, 0xfd, 0x36, 0x7f, 0x21, 0x52, 0x37,
  0x32, 0x5b, 0x5c, 0x37, 0x67, 0xda, 0x3b, 0x37, 0x42, 0x80, 0x1f, 0x37,
  0x96, 0xfc, 0x37, 0x37, 0xb4, 0x40, 0x3a, 0x37, 0xf0, 0x62, 0x34, 0x37,
  0x12, 0x00, 0x00, 0x00, 0x74, 0x66, 0x6c, 0x2e, 0x70, 0x73, 0x65, 0x75,
  0x64, 0x6f, 0x5f, 0x71, 0x63, 0x6f, 0x6e, 0x73, 0x74, 0x36, 0x00, 0x00,
  0x01, 0x00, 0x00, 0x00, 0x10, 0x00, 0x00, 0x00, 0x42, 0xf9, 0xff, 0xff,
  0x00, 0x00, 0x00, 0x01, 0x14, 0x00, 0x00, 0x00, 0xe8, 0x00, 0x00, 0x00,
  0x08, 0x00, 0x00, 0x00, 0x00, 0x00, 0x00, 0x09, 0xf4, 0x00, 0x00, 0x00,
  0xbc, 0xf9, 0xff, 0xff, 0x08, 0x00, 0x00, 0x00, 0x8c, 0x00, 0x00, 0x00,
  0x10, 0x00, 0x00, 0x00, 0x00, 0x00, 0x00, 0x00, 0x00, 0x00, 0x00, 0x00,
  0x00, 0x00, 0x00, 0x00, 0x00, 0x00, 0x00, 0x00, 0x00, 0x00, 0x00, 0x00,
  0x00, 0x00, 0x00, 0x00, 0x00, 0x00, 0x00, 0x00, 0x00, 0x00, 0x00, 0x00,
  0x00, 0x00, 0x00, 0x00, 0x00, 0x00, 0x00, 0x00, 0x00, 0x00, 0x00, 0x00,
  0x00, 0x00, 0x00, 0x00, 0x00, 0x00, 0x00, 0x00, 0x00, 0x00, 0x00, 0x00,
  0x00, 0x00, 0x00, 0x00, 0x00, 0x00, 0x00, 0x00, 0x00, 0x00, 0x00, 0x00,
  0x00, 0x00, 0x00, 0x00, 0x00, 0x00, 0x00, 0x00, 0x00, 0x00, 0x00, 0x00,
  0x00, 0x00, 0x00, 0x00, 0x00, 0x00, 0x00, 0x00, 0x00, 0x00, 0x00, 0x00,
  0x00, 0x00, 0x00, 0x00, 0x00, 0x00, 0x00, 0x00, 0x00, 0x00, 0x00, 0x00,
  0x00, 0x00, 0x00, 0x00, 0x00, 0x00, 0x00, 0x00, 0x00, 0x00, 0x00, 0x00,
  0x00, 0x00, 0x00, 0x00, 0x00, 0x00, 0x00, 0x00, 0x00, 0x00, 0x00, 0x00,
  0x00, 0x00, 0x00, 0x00, 0x10, 0x00, 0x00, 0x00, 0xa6, 0x35, 0x04, 0x3b,
  0x5f, 0x39, 0x12, 0x3b, 0xe7, 0x42, 0x0a, 0x3b, 0xba, 0x4b, 0x1a, 0x3b,
  0x6d, 0x04, 0xb4, 0x3a, 0xfc, 0x2c, 0x06, 0x3b, 0xef, 0x60, 0x18, 0x3b,
  0xb6, 0xd9, 0x30, 0x3b, 0xe8, 0x8c, 0x00, 0x3b, 0x6a, 0x25, 0x08, 0x3b,
  0xc8, 0xfc, 0x05, 0x3b, 0x53, 0xe9, 0x08, 0x3b, 0xde, 0xee, 0x05, 0x3b,
  0xd1, 0xf1, 0xd1, 0x3a, 0x1d, 0xe8, 0x0b, 0x3b, 0x97, 0x54, 0x1c, 0x3b,
  0x12, 0x00, 0x00, 0x00, 0x74, 0x66, 0x6c, 0x2e, 0x70, 0x73, 0x65, 0x75,
  0x64, 0x6f, 0x5f, 0x71, 0x63, 0x6f, 0x6e, 0x73, 0x74, 0x35, 0x00, 0x00,
  0x04, 0x00, 0x00, 0x00, 0x10, 0x00, 0x00, 0x00, 0x03, 0x00, 0x00, 0x00,
  0x03, 0x00, 0x00, 0x00, 0x10, 0x00, 0x00, 0x00, 0x62, 0xfa, 0xff, 0xff,
  0x00, 0x00, 0x00, 0x01, 0x14, 0x00, 0x00, 0x00, 0xe4, 0x00, 0x00, 0x00,
  0x07, 0x00, 0x00, 0x00, 0x00, 0x00, 0x00, 0x02, 0xf0, 0x00, 0x00, 0x00,
  0xdc, 0xfa, 0xff, 0xff, 0x08, 0x00, 0x00, 0x00, 0x88, 0x00, 0x00, 0x00,
  0x10, 0x00, 0x00, 0x00, 0x00, 0x00, 0x00, 0x00, 0x00, 0x00, 0x00, 0x00,
  0x00, 0x00, 0x00, 0x00, 0x00, 0x00, 0x00, 0x00, 0x00, 0x00, 0x00, 0x00,
  0x00, 0x00, 0x00, 0x00, 0x00, 0x00, 0x00, 0x00, 0x00, 0x00, 0x00, 0x00,
  0x00, 0x00, 0x00, 0x00, 0x00, 0x00, 0x00, 0x00, 0x00, 0x00, 0x00, 0x00,
  0x00, 0x00, 0x00, 0x00, 0x00, 0x00, 0x00, 0x00, 0x00, 0x00, 0x00, 0x00,
  0x00, 0x00, 0x00, 0x00, 0x00, 0x00, 0x00, 0x00, 0x00, 0x00, 0x00, 0x00,
  0x00, 0x00, 0x00, 0x00, 0x00, 0x00, 0x00, 0x00, 0x00, 0x00, 0x00, 0x00,
  0x00, 0x00, 0x00, 0x00, 0x00, 0x00, 0x00, 0x00, 0x00, 0x00, 0x00, 0x00,
  0x00, 0x00, 0x00, 0x00, 0x00, 0x00, 0x00, 0x00, 0x00, 0x00, 0x00, 0x00,
  0x00, 0x00, 0x00, 0x00, 0x00, 0x00, 0x00, 0x00, 0x00, 0x00, 0x00, 0x00,
  0x00, 0x00, 0x00, 0x00, 0x00, 0x00, 0x00, 0x00, 0x00, 0x00, 0x00, 0x00,
  0x10, 0x00, 0x00, 0x00, 0xc4, 0xe1, 0xc1, 0x36, 0x11, 0x6f, 0xd6, 0x36,
  0xb5, 0xc1, 0xca, 0x36, 0x53, 0x45, 0xe2, 0x36, 0xcf, 0xfe, 0x83, 0x36,
  0xe5, 0xc3, 0xc4, 0x36, 0x97, 0x75, 0xdf, 0x36, 0x5c, 0xac, 0x01, 0x37,
  0x0f, 0x84, 0xbc, 0x36, 0xa1, 0xa7, 0xc7, 0x36, 0x35, 0x7d, 0xc4, 0x36,
  0xed, 0xc6, 0xc8, 0x36, 0xcd, 0x68, 0xc4, 0x36, 0x6c, 0xf0, 0x99, 0x36,
  0x67, 0x2b, 0xcd, 0x36, 0x28, 0x41, 0xe5, 0x36, 0x12, 0x00, 0x00, 0x00,
  0x74, 0x66, 0x6c, 0x2e, 0x70, 0x73, 0x65, 0x75, 0x64, 0x6f, 0x5f, 0x71,
  0x63, 0x6f, 0x6e, 0x73, 0x74, 0x34, 0x00, 0x00, 0x01, 0x00, 0x00, 0x00,
  0x10, 0x00, 0x00, 0x00, 0x72, 0xfb, 0xff, 0xff, 0x00, 0x00, 0x00, 0x01,
  0x14, 0x00, 0x00, 0x00, 0xa8, 0x01, 0x00, 0x00, 0x06, 0x00, 0x00, 0x00,
  0x00, 0x00, 0x00, 0x09, 0xb4, 0x01, 0x00, 0x00, 0xec, 0xfb, 0xff, 0xff,
  0x08, 0x00, 0x00, 0x00, 0x0c, 0x01, 0x00, 0x00, 0x20, 0x00, 0x00, 0x00,
  0x00, 0x00, 0x00, 0x00, 0x00, 0x00, 0x00, 0x00, 0x00, 0x00, 0x00, 0x00,
  0x00, 0x00, 0x00, 0x00, 0x00, 0x00, 0x00, 0x00, 0x00, 0x00, 0x00, 0x00,
  0x00, 0x00, 0x00, 0x00, 0x00, 0x00, 0x00, 0x00, 0x00, 0x00, 0x00, 0x00,
  0x00, 0x00, 0x00, 0x00, 0x00, 0x00, 0x00, 0x00, 0x00, 0x00, 0x00, 0x00,
  0x00, 0x00, 0x00, 0x00, 0x00, 0x00, 0x00, 0x00, 0x00, 0x00, 0x00, 0x00,
  0x00, 0x00, 0x00, 0x00, 0x00, 0x00, 0x00, 0x00, 0x00, 0x00, 0x00, 0x00,
  0x00, 0x00, 0x00, 0x00, 0x00, 0x00, 0x00, 0x00, 0x00, 0x00, 0x00, 0x00,
  0x00, 0x00, 0x00, 0x00, 0x00, 0x00, 0x00, 0x00, 0x00, 0x00, 0x00, 0x00,
  0x00, 0x00, 0x00, 0x00, 0x00, 0x00, 0x00, 0x00, 0x00, 0x00, 0x00, 0x00,
  0x00, 0x00, 0x00, 0x00, 0x00, 0x00, 0x00, 0x00, 0x00, 0x00, 0x00, 0x00,
  0x00, 0x00, 0x00, 0x00, 0x00, 0x00, 0x00, 0x00, 0x00, 0x00, 0x00, 0x00,
  0x00, 0x00, 0x00, 0x00, 0x00, 0x00, 0x00, 0x00, 0x00, 0x00, 0x00, 0x00,
  0x00, 0x00, 0x00, 0x00, 0x00, 0x00, 0x00, 0x00, 0x00, 0x00, 0x00, 0x00,
  0x00, 0x00, 0x00, 0x00, 0x00, 0x00, 0x00, 0x00, 0x00, 0x00, 0x00, 0x00,
  0x00, 0x00, 0x00, 0x00, 0x00, 0x00, 0x00, 0x00, 0x00, 0x00, 0x00, 0x00,
  0x00, 0x00, 0x00, 0x00, 0x00, 0x00, 0x00, 0x00, 0x00, 0x00, 0x00, 0x00,
  0x00, 0x00, 0x00, 0x00, 0x00, 0x00, 0x00, 0x00, 0x00, 0x00, 0x00, 0x00,
  0x00, 0x00, 0x00, 0x00, 0x00, 0x00, 0x00, 0x00, 0x00, 0x00, 0x00, 0x00,
  0x00, 0x00, 0x00, 0x00, 0x00, 0x00, 0x00, 0x00, 0x00, 0x00, 0x00, 0x00,
  0x00, 0x00, 0x00, 0x00, 0x00, 0x00, 0x00, 0x00, 0x00, 0x00, 0x00, 0x00,
  0x00, 0x00, 0x00, 0x00, 0x00, 0x00, 0x00, 0x00, 0x00, 0x00, 0x00, 0x00,
  0x00, 0x00, 0x00, 0x00, 0x00, 0x00, 0x00, 0x00, 0x20, 0x00, 0x00, 0x00,
  0xa7, 0xee, 0x09, 0x3b, 0xce, 0x45, 0x30, 0x3b, 0x08, 0xce, 0x6a, 0x3b,
  0xfd, 0xc2, 0x34, 0x3b, 0x0c, 0x8a, 0x27, 0x3b, 0xb7, 0x18, 0x65, 0x3b,
  0xda, 0xea, 0x72, 0x3b, 0x90, 0x11, 0x57, 0x3b, 0x86, 0x65, 0x29, 0x3b,
  0x1b, 0x2a, 0x71, 0x3b, 0x30, 0xb9, 0x31, 0x3b, 0xf8, 0x33, 0x34, 0x3b,
  0xd7, 0x90, 0x80, 0x3b, 0xa6, 0x3e, 0x3c, 0x3b, 0xb1, 0xe9, 0x62, 0x3b,
  0xd8, 0x38, 0x79, 0x3b, 0x57, 0x5c, 0x60, 0x3b, 0x42, 0x4e, 0x4b, 0x3b,
  0x2e, 0x8d, 0x65, 0x3b, 0xb9, 0x6d, 0x93, 0x3b, 0xbc, 0xfe, 0x1c, 0x3b,
  0x71, 0xb0, 0x7a, 0x3b, 0x07, 0xf4, 0x28, 0x3b, 0x33, 0x3c, 0x83, 0x3b,
  0xae, 0xf1, 0x32, 0x3b, 0x58, 0x87, 0x94, 0x3b, 0x0a, 0x85, 0x63, 0x3b,
  0x72, 0x3d, 0x61, 0x3b, 0x72, 0x78, 0x4c, 0x3b, 0x4e, 0x7a, 0x5d, 0x3b,
  0x4a, 0x76, 0x85, 0x3b, 0xb9, 0xaa, 0x5f, 0x3b, 0x12, 0x00, 0x00, 0x00,
  0x74, 0x66, 0x6c, 0x2e, 0x70, 0x73, 0x65, 0x75, 0x64, 0x6f, 0x5f, 0x71,
  0x63, 0x6f, 0x6e, 0x73, 0x74, 0x33, 0x00, 0x00, 0x02, 0x00, 0x00, 0x00,
  0x20, 0x00, 0x00, 0x00, 0x10, 0x00, 0x00, 0x00, 0x4a, 0xfd, 0xff, 0xff,
  0x00, 0x00, 0x00, 0x01, 0x14, 0x00, 0x00, 0x00, 0xa4, 0x01, 0x00, 0x00,
  0x05, 0x00, 0x00, 0x00, 0x00, 0x00, 0x00, 0x02, 0xb0, 0x01, 0x00, 0x00,
  0xc4, 0xfd, 0xff, 0xff, 0x08, 0x00, 0x00, 0x00, 0x08, 0x01, 0x00, 0x00,
  0x20, 0x00, 0x00, 0x00, 0x00, 0x00, 0x00, 0x00, 0x00, 0x00, 0x00, 0x00,
  0x00, 0x00, 0x00, 0x00, 0x00, 0x00, 0x00, 0x00, 0x00, 0x00, 0x00, 0x00,
  0x00, 0x00, 0x00, 0x00, 0x00, 0x00, 0x00, 0x00, 0x00, 0x00, 0x00, 0x00,
  0x00, 0x00, 0x00, 0x00, 0x00, 0x00, 0x00, 0x00, 0x00, 0x00, 0x00, 0x00,
  0x00, 0x00, 0x00, 0x00, 0x00, 0x00, 0x00, 0x00, 0x00, 0x00, 0x00, 0x00,
  0x00, 0x00, 0x00, 0x00, 0x00, 0x00, 0x00, 0x00, 0x00, 0x00, 0x00, 0x00,
  0x00, 0x00, 0x00, 0x00, 0x00, 0x00, 0x00, 0x00, 0x00, 0x00, 0x00, 0x00,
  0x00, 0x00, 0x00, 0x00, 0x00, 0x00, 0x00, 0x00, 0x00, 0x00, 0x00, 0x00,
  0x00, 0x00, 0x00, 0x00, 0x00, 0x00, 0x00, 0x00, 0x00, 0x00, 0x00, 0x00,
  0x00, 0x00, 0x00, 0x00, 0x00, 0x00, 0x00, 0x00, 0x00, 0x00, 0x00, 0x00,
  0x00, 0x00, 0x00, 0x00, 0x00, 0x00, 0x00, 0x00, 0x00, 0x00, 0x00, 0x00,
  0x00, 0x00, 0x00, 0x00, 0x00, 0x00, 0x00, 0x00, 0x00, 0x00, 0x00, 0x00,
  0x00, 0x00, 0x00, 0x00, 0x00, 0x00, 0x00, 0x00, 0x00, 0x00, 0x00, 0x00,
  0x00, 0x00, 0x00, 0x00, 0x00, 0x00, 0x00, 0x00, 0x00, 0x00, 0x00, 0x00,
  0x00, 0x00, 0x00, 0x00, 0x00, 0x00, 0x00, 0x00, 0x00, 0x00, 0x00, 0x00,
  0x00, 0x00, 0x00, 0x00, 0x00, 0x00, 0x00, 0x00, 0x00, 0x00, 0x00, 0x00,
  0x00, 0x00, 0x00, 0x00, 0x00, 0x00, 0x00, 0x00, 0x00, 0x00, 0x00, 0x00,
  0x00, 0x00, 0x00, 0x00, 0x00, 0x00, 0x00, 0x00, 0x00, 0x00, 0x00, 0x00,
  0x00, 0x00, 0x00, 0x00, 0x00, 0x00, 0x00, 0x00, 0x00, 0x00, 0x00, 0x00,
  0x00, 0x00, 0x00, 0x00, 0x00, 0x00, 0x00, 0x00, 0x00, 0x00, 0x00, 0x00,
  0x00, 0x00, 0x00, 0x00, 0x00, 0x00, 0x00, 0x00, 0x00, 0x00, 0x00, 0x00,
  0x00, 0x00, 0x00, 0x00, 0x00, 0x00, 0x00, 0x00, 0x20, 0x00, 0x00, 0x00,
  0xde, 0x88, 0x02, 0x37, 0x9c, 0xd1, 0x26, 0x37, 0x34, 0x36, 0x5e, 0x37,
  0x29, 0x11, 0x2b, 0x37, 0xc3, 0x8d, 0x1e, 0x37, 0x42, 0xcf, 0x58, 0x37,
  0xa3, 0xe3, 0x65, 0x37, 0xb5, 0x88, 0x4b, 0x37, 0xbd, 0x4f, 0x20, 0x37,
  0xf5, 0x3a, 0x64, 0x37, 0x13, 0x31, 0x28, 0x37, 0xd0, 0x89, 0x2a, 0x37,
  0x4f, 0x57, 0x73, 0x37, 0x15, 0x26, 0x32, 0x37, 0x38, 0xbe, 0x56, 0x37,
  0x11, 0xdb, 0x6b, 0x37, 0xe8, 0x53, 0x54, 0x37, 0xe8, 0x66, 0x40, 0x37,
  0x7a, 0x3d, 0x59, 0x37, 0x8e, 0x85, 0x8b, 0x37, 0x38, 0x93, 0x14, 0x37,
  0x86, 0x3e, 0x6d, 0x37, 0x54, 0xe4, 0x1f, 0x37, 0xba, 0x64, 0x78, 0x37,
  0xcf, 0x58, 0x29, 0x37, 0x12, 0x90, 0x8c, 0x37, 0x3c, 0x51, 0x57, 0x37,
  0xf0, 0x28, 0x55, 0x37, 0x1a, 0x81, 0x41, 0x37, 0x74, 0x99, 0x51, 0x37,
  0xc1, 0x9b, 0x7c, 0x37, 0xd1, 0xab, 0x53, 0x37, 0x12, 0x00, 0x00, 0x00,
  0x74, 0x66, 0x6c, 0x2e, 0x70, 0x73, 0x65, 0x75, 0x64, 0x6f, 0x5f, 0x71,
  0x63, 0x6f, 0x6e, 0x73, 0x74, 0x32, 0x00, 0x00, 0x01, 0x00, 0x00, 0x00,
  0x20, 0x00, 0x00, 0x00, 0x1a, 0xff, 0xff, 0xff, 0x00, 0x00, 0x00, 0x01,
  0x14, 0x00, 0x00, 0x00, 0x3c, 0x00, 0x00, 0x00, 0x04, 0x00, 0x00, 0x00,
  0x00, 0x00, 0x00, 0x09, 0x48, 0x00, 0x00, 0x00, 0x94, 0xff, 0xff, 0xff,
  0x08, 0x00, 0x00, 0x00, 0x18, 0x00, 0x00, 0x00, 0x02, 0x00, 0x00, 0x00,
  0x00, 0x00, 0x00, 0x00, 0x00, 0x00, 0x00, 0x00, 0x00, 0x00, 0x00, 0x00,
  0x00, 0x00, 0x00, 0x00, 0x02, 0x00, 0x00, 0x00, 0xff, 0x77, 0xa2, 0x3b,
  0xb3, 0x56, 0xa5, 0x3b, 0x12, 0x00, 0x00, 0x00, 0x74, 0x66, 0x6c, 0x2e,
  0x70, 0x73, 0x65, 0x75, 0x64, 0x6f, 0x5f, 0x71, 0x63, 0x6f, 0x6e, 0x73,
  0x74, 0x31, 0x00, 0x00, 0x02, 0x00, 0x00, 0x00, 0x02, 0x00, 0x00, 0x00,
  0x20, 0x00, 0x00, 0x00, 0x86, 0xff, 0xff, 0xff, 0x00, 0x00, 0x00, 0x01,
  0x20, 0x00, 0x00, 0x00, 0x4c, 0x00, 0x00, 0x00, 0x03, 0x00, 0x00, 0x00,
  0x00, 0x00, 0x00, 0x02, 0x58, 0x00, 0x00, 0x00, 0x0c, 0x00, 0x0c, 0x00,
  0x00, 0x00, 0x00, 0x00, 0x08, 0x00, 0x04, 0x00, 0x0c, 0x00, 0x00, 0x00,
  0x08, 0x00, 0x00, 0x00, 0x1c, 0x00, 0x00, 0x00, 0x02, 0x00, 0x00, 0x00,
  0x00, 0x00, 0x00, 0x00, 0x00, 0x00, 0x00, 0x00, 0x00, 0x00, 0x00, 0x00,
  0x00, 0x00, 0x00, 0x00, 0x00, 0x00, 0x00, 0x00, 0x02, 0x00, 0x00, 0x00,
  0xfe, 0x90, 0x07, 0x38, 0x0b, 0xf6, 0x09, 0x38, 0x11, 0x00, 0x00, 0x00,
  0x74, 0x66, 0x6c, 0x2e, 0x70, 0x73, 0x65, 0x75, 0x64, 0x6f, 0x5f, 0x71,
  0x63, 0x6f, 0x6e, 0x73, 0x74, 0x00, 0x00, 0x00, 0x01, 0x00, 0x00, 0x00,
  0x02, 0x00, 0x00, 0x00, 0x00, 0x00, 0x16, 0x00, 0x1c, 0x00, 0x18, 0x00,
  0x17, 0x00, 0x10, 0x00, 0x0c, 0x00, 0x08, 0x00, 0x00, 0x00, 0x00, 0x00,
  0x00, 0x00, 0x07, 0x00, 0x16, 0x00, 0x00, 0x00, 0x00, 0x00, 0x00, 0x01,
  0x14, 0x00, 0x00, 0x00, 0x14, 0x00, 0x00, 0x00, 0x02, 0x00, 0x00, 0x00,
  0x00, 0x00, 0x00, 0x02, 0x1c, 0x00, 0x00, 0x00, 0x98, 0xff, 0xff, 0xff,
  0x0e, 0x00, 0x00, 0x00, 0x61, 0x72, 0x69, 0x74, 0x68, 0x2e, 0x63, 0x6f,
  0x6e, 0x73, 0x74, 0x61, 0x6e, 0x74, 0x00, 0x00, 0x01, 0x00, 0x00, 0x00,
  0x02, 0x00, 0x00, 0x00, 0x00, 0x00, 0x16, 0x00, 0x1c, 0x00, 0x18, 0x00,
  0x00, 0x00, 0x14, 0x00, 0x10, 0x00, 0x0c, 0x00, 0x00, 0x00, 0x00, 0x00,
  0x08, 0x00, 0x07, 0x00, 0x16, 0x00, 0x00, 0x00, 0x00, 0x00, 0x00, 0x01,
  0x14, 0x00, 0x00, 0x00, 0x28, 0x00, 0x00, 0x00, 0x28, 0x00, 0x00, 0x00,
  0x01, 0x00, 0x00, 0x00, 0x44, 0x00, 0x00, 0x00, 0x04, 0x00, 0x00, 0x00,
  0xff, 0xff, 0xff, 0xff, 0x60, 0x00, 0x00, 0x00, 0x60, 0x00, 0x00, 0x00,
  0x01, 0x00, 0x00, 0x00, 0x04, 0x00, 0x04, 0x00, 0x04, 0x00, 0x00, 0x00,
  0x1e, 0x00, 0x00, 0x00, 0x73, 0x65, 0x72, 0x76, 0x69, 0x6e, 0x67, 0x5f,
  0x64, 0x65, 0x66, 0x61, 0x75, 0x6c, 0x74, 0x5f, 0x6b, 0x65, 0x72, 0x61,
  0x73, 0x5f, 0x74, 0x65, 0x6e, 0x73, 0x6f, 0x72, 0x3a, 0x30, 0x00, 0x00,
  0x04, 0x00, 0x00, 0x00, 0x01, 0x00, 0x00, 0x00, 0x60, 0x00, 0x00, 0x00,
  0x60, 0x00, 0x00, 0x00, 0x01, 0x00, 0x00, 0x00, 0x07, 0x00, 0x00, 0x00,
  0x94, 0x00, 0x00, 0x00, 0x74, 0x00, 0x00, 0x00, 0x54, 0x00, 0x00, 0x00,
  0x40, 0x00, 0x00, 0x00, 0x2c, 0x00, 0x00, 0x00, 0x18, 0x00, 0x00, 0x00,
  0x04, 0x00, 0x00, 0x00, 0xb0, 0xff, 0xff, 0xff, 0x06, 0x00, 0x00, 0x00,
  0x02, 0x00, 0x00, 0x00, 0x00, 0x00, 0x00, 0x06, 0xc0, 0xff, 0xff, 0xff,
  0x19, 0x00, 0x00, 0x00, 0x02, 0x00, 0x00, 0x00, 0x00, 0x00, 0x00, 0x19,
  0xd0, 0xff, 0xff, 0xff, 0x09, 0x00, 0x00, 0x00, 0x04, 0x00, 0x00, 0x00,
  0x00, 0x00, 0x00, 0x09, 0xe0, 0xff, 0xff, 0xff, 0x28, 0x00, 0x00, 0x00,
  0x02, 0x00, 0x00, 0x00, 0x00, 0x00, 0x00, 0x28, 0xf0, 0xff, 0xff, 0xff,
  0x11, 0x00, 0x00, 0x00, 0x02, 0x00, 0x00, 0x00, 0x00, 0x00, 0x00, 0x11,
  0x0c, 0x00, 0x10, 0x00, 0x0f, 0x00, 0x00, 0x00, 0x08, 0x00, 0x04, 0x00,
  0x0c, 0x00, 0x00, 0x00, 0x03, 0x00, 0x00, 0x00, 0x03, 0x00, 0x00, 0x00,
  0x00, 0x00, 0x00, 0x03, 0x0c, 0x00, 0x0c, 0x00, 0x0b, 0x00, 0x00, 0x00,
  0x00, 0x00, 0x04, 0x00, 0x0c, 0x00, 0x00, 0x00, 0x72, 0x00, 0x00, 0x00,
  0x00, 0x00, 0x00, 0x72
};

const unsigned int custom_cnn_gray_model_quantized_len = 11224;

#endif // CUSTOM_CNN_GRAY_MODEL_QUANTIZED_H
